{"ĠTurks": 27539, "bage": 36772, "Ġdepicted": 21520, "ĠHorde": 47988, "ĠCoul": 33018, "ĠMobile": 6698, "Ġdeclare": 10152, "Ġradio": 3188, "Ġveter": 48161, "ĠWD": 33925, "ĠKobe": 24058, "ĠSung": 24674, "ĠRos": 4168, "Ġrestraints": 23332, "ĠCTR": 46824, "Ġexaggerated": 26044, "ulating": 11539, "agg": 7165, "Ġolds": 36504, "rey": 5460, "realDonaldTrump": 14345, "Ġalthough": 1712, "vag": 45145, "Desktop": 45469, "Ġfunded": 6140, "Ġland": 1212, "Ġrender": 19930, "many": 19827, "ĠFer": 6838, "ooo": 41242, "Ġprojected": 5635, "Ġexplosion": 6986, "Ġgranddaughter": 21002, "Ġpublications": 16043, "Ġvoted": 2763, "ĠSantorum": 40621, "Ġemperor": 36179, "IG": 5969, "Ġhosts": 4452, "cap": 10906, "ĠCoulter": 30736, "ĠYog": 23430, "bled": 10288, "Plex": 46169, "ĠNest": 12786, "ĠViolence": 17101, "Ġ105": 11061, "Marie": 30557, "Ġtant": 23282, "Ġphysique": 29543, "Ġblacks": 20465, "Ġmaps": 12879, "Ġweeds": 28292, "Ġautonomy": 17394, "Ġxp": 49288, "Ġcrossings": 23309, "ĠMansion": 29252, "Ġconcurrent": 36099, "Ġexpectation": 9250, "ogenous": 42825, "Ġcler": 32391, "ĠGloria": 20753, "gate": 7357, "69": 4563, "Ġtrump": 20125, "************": 44706, "ovy": 35664, "Ġcandidacy": 17231, "Ġuniformly": 41919, "âĶĢâĶĢâĶĢâĶĢâĶĢâĶĢâĶĢâĶĢ": 49495, "ĠEnc": 14813, "Ġbroadcasting": 16687, "ĠCh": 732, "Eva": 46672, "proven": 32012, "Ġreckless": 13508, "FS": 7881, "ĠJD": 17795, "Ġadventurer": 44090, "Ġshifting": 9255, "\":[": 33525, "ĠguiActive": 50149, "Ġinduced": 26914, "Ġpard": 25427, "nesium": 45684, "erd": 25902, "Ġsixteen": 32382, "Ġstresses": 23604, "Ġpharmacies": 25635, "ĠPur": 11834, "Ġbreeding": 16828, "ĠDexterity": 49417, "Ġinformative": 29749, "Ġfields": 5447, "Ġpound": 6881, "bour": 22482, "own": 3355, "ĠCrane": 26477, "ĠMagnetic": 41289, "Ġrecol": 37941, "ĠGian": 10752, "ĠReflex": 47573, "Ġhunger": 12226, "Ġpunishment": 8653, "Ġtraff": 30246, "Ġsecrecy": 22596, "ĠKarma": 37717, "Ġindustrialized": 39272, "Ġfac": 11778, "Ġinvolving": 3329, "forcer": 39727, "hene": 29089, "Ġkg": 14091, "Ġcorrections": 21349, "ĠLey": 26883, "ĠAberdeen": 15254, "ĠKum": 19287, "Ġcoaches": 4055, "every": 22466, "Ġcere": 29012, "ĠSecurity": 2010, "military": 29317, "ĠInvention": 45843, "ontent": 46894, "Ġroasted": 23715, "Ġcivil": 2366, "Ġrode": 12783, "ĠMinor": 21315, "ĠCreate": 21384, "Ġresisted": 18993, "Ġfeminine": 27360, "Ġcaramel": 28218, "Ġspeculated": 20872, "Ġdestroyer": 33620, "ÃįÃį": 50066, "ĠTiff": 39627, "ĠJournalists": 24446, "ĠRO": 10033, "Ġmortal": 35679, "integer": 49465, "Ġdisadvant": 48798, "2005": 32857, "Ġcracked": 16212, "dirty": 40087, "ĠSurvivor": 30479, "Ä": 649, "Wow": 23692, "Phil": 25531, "ĠControl": 6007, "Ġcaptcha": 49157, "Ġvulnerable": 4478, "ĠBella": 13172, "ĠZIP": 41989, "ĠGlory": 30402, "Specific": 46953, ".\"": 72, "auder": 44533, "emb": 20506, "Ġveterinarian": 29231, "Ġ77": 6791, "Ġnext": 220, "ulf": 19509, "Ġprotagonists": 37813, "ĠKarn": 12492, "ĠPai": 27039, "Ġsaints": 39529, "Ġtraits": 17943, "ĠTBD": 37242, "Ġcountering": 33156, "Gs": 28393, "ĠWinners": 22723, "ĠBundy": 26247, "rupulous": 35361, "ĠParent": 7783, "Ġcredit": 1361, "inates": 34244, "Ġbreaths": 41711, "Ġnovelty": 29750, "ruff": 26775, "Ġtidy": 32296, "ĠâĢĵ": 126, "Ġvicinity": 22592, "improve": 37362, "ĠBull": 6518, "incent": 34457, "Ġnest": 15717, "Ġdebates": 14759, "imb": 16231, "Ġdefeats": 16393, "Ġbashing": 37458, "Ġsidew": 46605, "Ġnowadays": 25708, "Ġgrows": 11461, "Ġharass": 27395, "erential": 44125, "Ġaxes": 42694, "label": 33480, "ĠShy": 30843, "POR": 35473, "Ġtravellers": 18268, "serving": 20017, "ĠSkydragon": 50040, "Ġ[âĢ¦]": 22176, "ĠMult": 14910, "estival": 30474, "ĠLOG": 34772, "Ġprinters": 29379, "Ġgaping": 36298, "\":-": 50000, "uid": 29897, "ĠHERO": 42874, "cca": 17782, "rb": 20815, "ĠSurely": 28086, "ĠI": 38, "Ġ%": 7606, "Ġarter": 39929, "ĠTony": 3621, "Ġrobbers": 26379, "Ġtwisted": 22027, "anca": 19740, "Ġpeek": 20003, "2011": 22748, "Ġoverriding": 38078, "Ġnutritious": 30426, "Ġaz": 15001, "Ġsensit": 28195, "ĠConvention": 9127, "oother": 49012, "Ġquarry": 36339, "ĠRichardson": 9429, "Ġspecificity": 42561, "Ġindign": 41465, "esty": 27668, "Ġsat": 4005, "Ġendot": 46267, "ĠGlas": 35497, "ĠBroad": 8397, "ĠHS": 21499, "752": 39738, "ervatives": 37376, "ĠVe": 10978, "Ġsupervisor": 13759, "ĠBRE": 13530, "ĠMiles": 11815, "Ġspike": 12490, "ĠSpend": 34675, "ĠPlan": 5427, "Ġincentives": 9643, "Ġinflict": 31343, "ĠPosition": 21355, "Ġcataly": 23836, "Ġproductions": 18943, "ĠRicardo": 19672, "volent": 40180, "ĠLeban": 49601, "ĠCOMPLE": 44334, "ĠThem": 28595, "Ġlevied": 28486, "cheon": 16285, "Ġshaming": 32244, "Ġbarbar": 41503, "Ġemergency": 1923, "Ġtenth": 17008, "Ġredef": 28557, "ĠTests": 18136, "Ġspat": 20231, "ĠOrigin": 21042, "Ġ23": 883, "052": 40717, "ĠKafka": 44255, "ĠGentle": 37196, "ĠSetTextColor": 50245, "Ġcyl": 44996, "XXX": 47980, "ivari": 45982, "ĠNot": 1491, "ĠPiper": 17503, "Ġshaping": 16383, "ĠQC": 24703, "ĠAuthor": 14338, "Ġknit": 29716, "Ġbund": 37035, "Memory": 47184, "Ġdrainage": 20971, "ĠFiji": 19824, "ĠVictims": 25320, "acket": 32561, "EL": 3721, "Ġtowel": 21342, "oglobin": 43202, "Ġwarp": 43664, "Ġcolony": 21878, "istry": 20217, "ĠEarthquake": 43632, "Ġinevitably": 16561, "Ġthw": 48416, "rawdownloadcloneembedreportprint": 50174, "Ġransom": 22956, "usher": 42953, "avor": 22042, "Ġobviously": 3334, "Ġblood": 1925, "Jack": 20907, "rank": 40081, "Ġreproduction": 26385, "Ġloads": 16277, "ĠCR": 4307, "ï¿½ï¿½ï¿½ï¿½": 48697, "Ġcomprehend": 30030, "midt": 32623, "ĠOffline": 46949, "Ġavocado": 25358, "Ġ1893": 43554, "Ġcruc": 40101, "Engineers": 47890, "Ġdetermines": 23483, "ocent": 41361, "pling": 20418, "ĠFund": 2896, "auer": 9994, "irsch": 30993, "Ġjuggling": 33261, "Ġimpressed": 6889, "Ġhail": 18742, "ĠSimpl": 39753, "ĠKoreans": 16818, "home": 8361, "Ġregist": 19886, "Ġconversions": 30869, "dead": 18758, "Ġ<<": 48188, "Ġque": 1192, "ĠTou": 20613, "hd": 35905, "Invest": 19923, "ol": 1168, "endars": 47407, "Ġpeppers": 28314, "Ġstagnation": 35147, "Ġreaction": 4289, "!!": 12846, "ĠBuilder": 40916, "ĠShanahan": 22614, "Ġprogressive": 8212, "itute": 26261, "ilitation": 20825, "acle": 24618, "Ġsweating": 31363, "ATER": 20106, "ĠGifts": 39407, "ĠSurgery": 26793, "ufficient": 43022, "ĠGift": 23631, "Ġinflation": 2680, "Ġbudding": 25770, "ated": 1070, "olf": 14927, "Ġaluminium": 18051, "ĠAut": 9496, "Ġinterfere": 15365, "Trans": 19163, "ĠSN": 13687, "Ġanimate": 45617, "Facebook": 18064, "Ġadministering": 33742, "America": 12580, "ĠCharity": 20002, "Ġrehabilit": 25891, "Ġimplementation": 5574, "ĠHodg": 20452, "Ġignition": 32026, "Ġdragons": 39851, "Us": 16419, "ĠFlu": 25404, "Tr": 12667, "Ġunethical": 32316, "Ġsquash": 26423, "Ġhubs": 22350, "Ġdestined": 19083, "ror": 21929, "ĠBermuda": 29833, "Ġferry": 15169, "foreign": 35229, "ĠDynasty": 37486, "Ġbirth": 3113, "Ġpine": 22716, "Ġclergy": 21064, "lc": 45071, "Ġruin": 17948, "Ġsynopsis": 33577, "azon": 20524, "460": 30875, "hist": 32001, "ĠAttempt": 29883, "ĠSunshine": 14995, "Ġlegislatures": 34467, "ĠDirectory": 44366, "Ġprosecutor": 5644, "ĠWood": 3132, "ĠRanger": 23151, "Ġairports": 9651, "Initialized": 50026, "enery": 37897, "Ġcereal": 25629, "ĠArgentine": 14173, "Ġslime": 40684, "ĠSard": 23892, "ĠWoods": 5227, "greg": 40745, "Ġmailbox": 36661, "Ġorganizational": 20973, "Ġtweaked": 31134, "Ġlearns": 25269, "ĠState": 331, "ĠAHL": 22457, "Ġtainted": 25686, "ĠLynn": 9840, "assisted": 30183, "Ġmargin": 2759, "speed": 8619, "Ġnowhere": 9261, "Ġali": 27817, "Ġoccurred": 2756, "ĠPresidency": 22186, "ters": 2696, "Ġsleeping": 8416, "ĠGraham": 4572, "aylor": 28897, "ĠCHR": 37918, "ĠRoman": 7733, "Ġchosen": 4986, "ĠFar": 4256, "ĠYour": 2486, "ĠGuatem": 33651, "Attempt": 47797, "serious": 21231, "iframe": 48363, "rox": 31726, "ĠiOS": 6894, "Ġleaks": 12902, "Ġnegotiations": 3377, "raits": 43182, "ĠSimply": 17449, "Ġ230": 16242, "ĠMoon": 5648, "ĠBST": 28964, "ĠSP": 6178, "requisites": 44877, "ĠLopez": 7322, "Cost": 34985, "Ġfuner": 31978, "uffer": 31006, "Ġshielding": 37233, "andel": 25849, "ĠInteractive": 21901, "Ġjailed": 8420, "Ġupfront": 19915, "Ġslowdown": 9831, "Parameters": 49725, "Ùİ": 46297, "ĠRefresh": 37485, "Ġfielding": 22762, "ĠLu": 5078, "DD": 27140, "assic": 41139, "bot": 12749, "Ġdialect": 37508, "Ġmagnesium": 36165, "ĠWithout": 6830, "establishment": 30439, "Ġestimating": 31261, "Ġtechnique": 9205, "Ġadditives": 36254, "Ġheard": 1317, "checked": 41641, "ĠTasmania": 29314, "Ġscorp": 43791, "Ġstronghold": 22558, "anks": 10950, "hyper": 44039, "Ġmaking": 442, "Ġburst": 10084, "»Ĵ": 49834, "Imagine": 31206, "Ġbriefly": 7478, "Accept": 47127, "ĠDEM": 33474, "Ġseeing": 1782, "ÂłÂłÂłÂł": 50144, "Ġprominent": 5395, "rily": 42922, "Ġharming": 28428, "stadt": 22487, "Sequ": 48245, "Ġinadequ": 39672, "Ġbaths": 28650, "ĠCanadian": 1563, "orable": 18911, "Ġnarrator": 33071, "Ġfoil": 25114, "ĠVari": 41058, "ĠSerial": 42477, "Ġdepressive": 40942, "cancer": 33596, "Ġarch": 9599, "Ġhump": 34314, "Anonymous": 47679, "Ġdf": 47942, "Ġsens": 18105, "qi": 26017, "ĠSy": 5767, "Ġremarks": 4166, "Sand": 40213, "tic": 13240, "Ġhandmade": 26419, "Ġreminds": 14236, "clinton": 45397, "ĠWriters": 23149, "Ġblister": 21786, "ummy": 22383, "ĠFrequ": 39359, "Ġsuperhuman": 43969, "ĠBree": 10349, "Ġvintage": 12669, "Ġkidding": 27537, "Ġwaning": 28745, "Ġaccum": 33232, "iller": 8690, "Ġmascara": 36317, "edo": 26265, "Ġtalk": 1067, "ĠExtend": 45822, "ouch": 12746, "Ġl": 784, "Ġrept": 38950, "Ġnumber": 346, "Ġsets": 3880, "Ġunavoidable": 35074, "ĠConverted": 48422, "ĠGeh": 35452, "ĠStep": 10577, "Ġused": 341, "ĠReturning": 31114, "redibly": 32340, "Ġ<-": 50155, "Ġ1989": 10206, "Ġworkload": 16942, "Ġvalued": 2328, "Ġbundles": 30945, "ĠWr": 23511, "Float": 48766, "Ġlack": 1762, "Ġduo": 6458, "Ġappearances": 4961, "ward": 7767, "usion": 15727, "ĠResponsibility": 31523, "Ġmusicians": 8884, "ocket": 31629, "Ġtanks": 12039, "ĠLibya": 7662, "Ġrevis": 25614, "Ġfuzzy": 34773, "Support": 38873, "doi": 39159, "ĠChallenge": 10045, "english": 47120, "Digital": 30219, "archy": 37208, "jas": 19798, "complex": 42290, "ĠMoz": 17295, "ĠRepresent": 27893, "command": 41483, "Ġlast": 94, "Ġconfigure": 39693, "h": 298, "Font": 46197, "Ġincidentally": 40075, "Ġunregulated": 34166, "Aff": 41085, "cal": 11762, "anim": 25042, "Ġhumanity": 9187, "ĠHonda": 8011, "ĠJust": 1801, "Ġreflects": 6771, "Ġboundaries": 10156, "391": 35848, "Ġtrafficking": 7492, "----------------": 24524, "Ġprivileges": 24073, "DO": 19174, "avan": 10937, "759": 39055, "Patrick": 32811, "Ġclash": 6064, "ĠNissan": 9767, "ĠPsychiatry": 41215, "gers": 7188, "ĠDancing": 15387, "super": 16101, "ĠCNN": 3480, "olog": 8982, "Ġmeanings": 39314, "ĠAxis": 34073, "Ġpassively": 43180, "ĠCAS": 24775, "Ġmosquitoes": 24994, "Ġassorted": 35987, "¬": 11582, "IDER": 31915, "ĠAdvice": 33433, "rained": 26492, "Ġupwards": 19603, "Transaction": 48132, "Ġtrigger": 7691, "Franc": 38461, "Ġraid": 10369, "javascript": 49596, "Ġdealing": 4098, "Ġostensibly": 29578, "Ġrevision": 18939, "Ġbehest": 35330, "Ġmineral": 10026, "Ġtelevision": 2384, "Ġperfect": 1969, "rier": 8590, "iton": 24899, "ĠRagnar": 45470, "Ġpleading": 17532, "chedel": 46443, "Outside": 43840, "Ġagents": 3525, "olicited": 33358, "Ġlook": 356, "hang": 24610, "ĠDiscuss": 29494, "ĠGender": 25262, "Ð°": 26161, "atism": 44329, "ĠMumbai": 5729, "oline": 18675, "acts": 19170, "Ġinstability": 16826, "Ġmemories": 6180, "Ġassures": 36008, "axy": 39656, "ĠSCH": 26744, "ĠNRS": 47135, "Ġjug": 26144, "ĠØ§ÙĦ": 32681, "Ġhandful": 6095, "atonin": 43515, "October": 20144, "ĠArduino": 45850, "vis": 9578, "Jam": 39503, "Ġhopes": 1991, "Ġsuppose": 19792, "Hispanic": 44272, "aughty": 42942, "Ġlosses": 2687, "Ġmov": 32924, "Ġadvisable": 40791, "inkle": 15673, "Ġgamma": 42685, "ĠSamar": 17882, "Ġric": 24421, "ĠLil": 14378, "COL": 18047, "ĠKai": 21744, "ĠTask": 12927, "ĠForgotten": 43799, "ĠTuring": 42014, "Ġsteal": 8052, "350": 10056, "ĠShape": 29937, "Ġsuccess": 1282, "ĠBeasts": 37993, "ĠEP": 12995, "Ġparticle": 33100, "Ġledge": 41378, "Ġ119": 16491, "Ġventured": 32320, "ĠStarbucks": 10173, "Ġflowers": 7716, "Ġveterans": 4823, "Ġjumper": 16338, "Ġbulk": 8533, "Ġkill": 3549, "ĠTaco": 23206, "Ġunused": 23797, "Ġdred": 31120, "anguage": 49520, "ĠWynne": 25625, "356": 32760, "----------------------------------------------------------------": 49308, "ĠSyd": 38526, "Ġdeputy": 3193, "Ġconverter": 42663, "Ġcords": 37687, "Ġhinges": 33374, "Bank": 13532, "Ġslicing": 40341, "Ġshader": 48305, "ĠAp": 8712, "ohl": 24466, "acs": 21703, "Ġmillennium": 38751, "Ġdonkey": 38822, "Ġdeliveries": 11336, "cible": 42197, "oky": 24878, "Look": 15833, "overs": 13507, "ijn": 18787, "ĠTwisted": 44059, "Ġventilation": 30911, "ĠStyle": 18149, "act": 7257, "eq": 41456, "ĠDol": 13520, "Ġrespected": 9132, "ls": 6634, "Ġexplan": 49473, "perties": 48525, "ĠLip": 15914, "Ġdiverted": 19070, "itars": 45892, "ĠAB": 6266, "ĠLionel": 15350, "Ġattribut": 41070, "Ġ71": 6121, "Ġnurs": 37104, "66666666": 50036, "ĠBailey": 8740, "130": 11343, "ĠBrief": 14201, "ĠMarie": 9340, "Ġquest": 9794, "coe": 25595, "Ġtradem": 49999, "ĠPages": 32502, "inger": 6082, "istor": 41726, "Ġestablish": 5242, "facing": 16891, "Ġswings": 14389, "ĠExtended": 36358, "ĠBenz": 23214, "103": 18159, "ĠBrut": 32702, "Ġminimized": 41774, "ean": 12001, "atz": 15586, "ĠAnge": 29199, "ĠBret": 27547, "hazard": 43217, "Ġ2004": 4482, "attach": 47277, "ĠAzerbaijan": 12097, "}}}": 49908, "wives": 17226, "Ġhospitalized": 12399, "madeupword0001": 50262, "ĠSorry": 19719, "Ġchilled": 32338, "Ġintegrated": 6818, "Ġultr": 33816, "Richard": 27845, "ĠESA": 34479, "Ġconstitutionally": 33627, "Ġcoordination": 13141, "Ġentr": 34914, "ĠReboot": 46881, "Ġprocedural": 24126, "Ġlaunches": 10158, "Ġalbeit": 13176, "adesh": 42589, "Ġdirectives": 29256, "Ġpressing": 10275, "Ġ233": 31738, "Ġcompress": 37175, "Ġsheet": 5462, "ĠBrent": 6141, "Ġleve": 16066, "itatively": 43127, "Ġessentials": 28146, "ĠPurs": 30348, "ĠEnterprise": 9745, "Hand": 21292, "Ġnuns": 34274, "Ġsewage": 21659, "Ġbombardment": 36449, "fun": 18317, "apore": 31066, "Ġstren": 34812, "ĠLevine": 20389, "stretched": 34513, "Ġhiding": 9646, "Buffer": 49334, "oing": 26856, "Ġtricky": 12792, "icals": 13764, "Ġspills": 29050, "Ġpatriarchal": 40242, "ĠAngels": 9086, "ĠAzerbai": 28196, "Ġreve": 26911, "ĠSale": 9140, "hop": 9547, "Ġdeparted": 16238, "PLAY": 43784, "Ġedits": 39708, "atsuki": 47497, "Ġpeacefully": 17061, "ĠAssociated": 1562, "Ġvaccinated": 26999, "ĠDairy": 21590, "Ġdependencies": 45371, "Ġsoutheast": 10171, "PE": 16035, "ĠBethesda": 32179, "Ġrates": 1162, "Ġmas": 11705, "ĠAdviser": 19885, "Ġshow": 311, "Ġinterception": 11949, "ĠLabs": 20404, "Ġimpossibility": 44778, "finding": 33791, "Ġcorrelation": 22792, "Ġrac": 13816, "ĠZig": 34808, "============": 43613, "Ġunint": 45467, "Ġresidues": 44701, "ĠRebel": 25710, "ĠMent": 22150, "ĠNHS": 8681, "Ġprosecuted": 15984, "ĠTenn": 10797, "Ġbitcoins": 38811, "Ġdisclosed": 4638, "è£ħ": 49862, "~~~~~~~~~~~~~~~~": 48936, "Ġtempered": 31380, "ĠRepublic": 3497, "Ġaesthetic": 17338, "ederal": 40316, "Ġward": 11898, "Ġhospital": 1098, "Ġconson": 46098, "Ġsnapshots": 40617, "262": 29630, "scar": 25713, "Ġallergies": 26331, "Ġexpend": 40300, "anyon": 45955, "EV": 19896, "Ġminions": 44461, "368": 27594, "Ġstyl": 15240, "VO": 32956, "ĠHitler": 16423, "ĠUltimate": 19687, "Ġconduc": 46341, "ĠSummary": 19584, "Thus": 42702, "ĠACTION": 40733, "From": 7605, "rio": 12834, "lich": 9182, "Ġfails": 10578, "aneers": 47258, "Ġshows": 924, "Ġhalluc": 40510, "yth": 20436, "cli": 48556, "Ġatop": 12619, "Ġapplication": 2502, "ĠBaseType": 50181, "AD": 2606, "innie": 31854, "ĠKo": 8723, "Ġrequested": 5372, "llor": 31836, "Ġbooming": 16709, "Ġendeav": 34078, "powerful": 35866, "Ġoptic": 36377, "Ġworried": 3915, "Ġemphatically": 34507, "ĠRSS": 20569, "joy": 20768, "Ġshack": 26623, "ĠPigs": 43249, "ĠUriel": 48101, "oya": 13578, "itudes": 25917, "Pand": 45741, "Ġstyles": 11019, "Ġ1905": 40849, "901": 40197, "Ġexchanging": 28149, "Ġceremonial": 24431, "Ġreproduce": 33942, "ĠKh": 2218, "Ġfifty": 14865, "Ġjeopardy": 22925, "atical": 36105, "shall": 42065, "Ġasleep": 15028, "Form": 30039, "ĠBetsy": 24171, "Ġblasted": 14248, "duc": 45882, "ĠTransformers": 34379, "Ġbou": 20437, "Ġmoment": 1151, "Ä±": 10031, "ĠSirius": 24475, "aments": 26494, "Ġbankruptcy": 7388, "Finding": 38867, "UID": 46508, "Ġcup": 4946, "Ġfunctions": 8047, "ĠNiger": 5572, "amic": 21515, "Ġunderrated": 33249, "Ġoxygen": 11747, "Ġiceberg": 26937, "447": 35337, "ĠObi": 27954, "ĠSwedish": 9004, "rin": 5719, "Ġtrad": 26916, "³": 15264, "arding": 16014, "Ġtrailing": 12564, "ĠCanary": 35326, "Ġcom": 3137, "Ġ2014": 777, "($": 44688, "ĠBinding": 47773, "623": 39196, "Ġbullies": 33969, "Ġadvisory": 7640, "Ġlure": 16679, "Baltimore": 35263, "Ġoutlaw": 29319, "ĠÃł": 6534, "head": 3628, "Ġnegativity": 30269, "Ġdistinctly": 33029, "Ġbracelet": 31996, "Ġintra": 18592, "ron": 2839, "NES": 8552, "Ġinterim": 6375, "Ġquickly": 1335, "ĠRELE": 36478, "ĠMilton": 16612, "Ġpriority": 3887, "ĠRubber": 31170, "Ġsixty": 33910, "298": 32646, "Ġundis": 31049, "Ġvalves": 33376, "ĠSIG": 38499, "icated": 5554, "á¸": 48934, "please": 37111, "Ġdepl": 28156, "ĠTry": 11087, "Ġcontrollers": 22971, "olia": 23254, "atible": 45740, "ĠTravel": 8696, "Ġfatigue": 16069, "Federal": 33509, "aches": 11322, "rex": 19633, "ĠLob": 20561, "å®": 47089, ")*": 44418, "ĠLamar": 13108, "PATH": 48468, "Ġtoast": 20260, "ĠThurs": 20074, "jj": 33850, "ĠPetersburg": 14330, "cano": 38754, "ĠÂłĠÂł": 50145, "Ġentrepreneurs": 8666, "ĠHMS": 33810, "build": 23411, "Ġard": 24823, "Amazing": 41710, "ĠVIP": 14918, "Andy": 32743, "Node": 48271, "sign": 13033, "BUS": 22295, "ĠFut": 13611, "seek": 42876, "aughter": 35609, "ĠDiscount": 24142, "Ġgrenades": 31384, "Ġhomepage": 28697, "Ġdestroys": 35198, "Ġ43": 3557, "ĠOrbital": 41068, "mitter": 44370, "Im": 20470, "ĠXbox": 10444, "Ġredacted": 33706, "ĠCarnage": 47521, "ĠDah": 25000, "Els": 48246, "Ser": 28498, "Ġgrouping": 32389, "Ġresults": 775, "Ġmuch": 203, "Ġharassing": 24748, "ĠButler": 7276, "ĠSouth": 391, "Sign": 25675, "fund": 13858, "Ġclosure": 6803, "olla": 19733, "agy": 37263, "Collect": 44252, "terday": 45869, "ĠBradley": 7112, "ivo": 9697, "orned": 39606, "iff": 4822, "ĠRan": 9462, "umbledore": 49597, "cor": 7215, "arter": 24391, "Ġextra": 1823, "ogs": 17821, "Ġdreaded": 31615, "Ġelimination": 15063, "pread": 47561, "ansson": 26277, "income": 7214, "ĠMich": 9605, "ĠBD": 25265, "Py": 42734, "Warren": 41914, "ĠMPH": 39445, "Ġmail": 7107, "ĠTHEIR": 43216, "Bomb": 42984, "Ġchill": 13146, "ĠAllies": 37761, "Ġrepent": 42665, "con": 3865, "Ġwipes": 34294, "ĠEm": 3676, "Ġefforts": 1170, "Ġuntrue": 27944, "Ġfantas": 41069, "Ġconsistent": 4292, "ĠRequires": 46233, "ĠPhilip": 6805, "ĠAnderson": 3452, "ĠInstead": 2978, "urgical": 19625, "ĠCam": 4536, "uren": 20732, "Ġanswers": 5274, "Ġartificially": 30768, "äºº": 47973, "Ġrm": 45900, "Ġvs": 1954, "Ġplanetary": 33417, "avy": 19909, "Ġyell": 28930, "Ġdetainee": 39958, "Ġauthors": 7601, "access": 28300, "606": 36101, "ĠYuan": 32684, "Ġ256": 22078, "Ġannihilation": 43029, "Ġcomposite": 14464, "ĠRomeo": 24069, "ĠWTO": 21896, "Ġscripting": 45465, "Ġupsetting": 24481, "Ġhairs": 36196, "urdue": 46420, "Ġmerchandise": 12952, "ĠTelesc": 47963, "ahon": 42343, "thora": 48795, "Ġthresholds": 37817, "Between": 37257, "Ġinstr": 49152, "Ġsinks": 34034, "Ġflora": 39456, "ĠMcCabe": 16848, "Ġ\\\"": 48298, "enced": 19867, "ĠZoe": 18922, "Ġrestrict": 14058, "ctuary": 35584, "Ġacknowledge": 9630, "Ġtast": 24867, "Ġlvl": 49626, "ĠPaper": 14479, "ĠEclipse": 31011, "Ġrichness": 38857, "Widget": 48612, "ĠURLs": 44163, "ĠJah": 11084, "Ġmuzzle": 41751, "Ġatt": 15095, "Ġspirit": 4780, "ĠOperating": 11763, "mx": 42385, "yx": 37119, "Ġmaneuvers": 36480, "ĠWANT": 40455, "Ġlinemen": 24818, "gart": 22739, "Ġmammalian": 46428, "Ġacross": 420, "ĠManson": 23445, "ĠChamp": 15563, "Ġreckon": 29057, "âĢ²": 33533, "bul": 21343, "Âº": 34736, "Ġmillionaire": 31541, "ĠTIM": 18685, "ĠRin": 22995, "Ġcomplaining": 13689, "Dialog": 48873, "ross": 14500, "ĠGuards": 26197, "Ġsurvive": 6008, "ĠStafford": 16359, "Ġproclaim": 33134, "ĠRelic": 45574, "Ġcommunicated": 21498, "Ġadjustment": 13380, "ĠFlorence": 9610, "Ġclarified": 18135, "Ġsteps": 2402, "ĠValent": 18352, "Yes": 9904, "Ġcoveted": 16895, "Ġtones": 23225, "Ġobstacles": 13143, "Ġresistance": 5910, "ĠZimmerman": 22049, "Ġfeathers": 28442, "ĠRabbi": 27055, "ĠRaz": 21965, "Ġlinebackers": 26198, "chuk": 20756, "ĠCommunications": 6076, "Ġmammal": 39326, "umbers": 30806, "Wil": 28886, "Ġsurgeries": 15948, "batch": 35001, "Ġtheirs": 20343, "82": 6551, "Ġ293": 38485, "Nine": 37071, "ashington": 40886, "Vote": 39992, "758": 37073, "GAME": 46761, "Ġfumes": 34198, "Ġcriminals": 9177, "ĠSuper": 1582, "Ġconfidential": 12143, "izable": 38142, "ĠDurham": 13558, "77": 4718, "Ġtextbook": 31046, "sudo": 49222, "ĠPo": 6002, "');": 47033, "Ġprocure": 32560, "Ġanatomy": 38272, "ĠMari": 19702, "BOOK": 27614, "Ġwithd": 49677, "ocene": 42416, "hawks": 22906, "inflamm": 46655, "Ġconsultants": 15792, "Ġhouse": 790, "ĠKore": 18650, "Will": 17485, "ĠYu": 11698, "Ġoffences": 9971, "Social": 28565, "Ġslider": 29432, "ĠTroy": 7786, "ĠEither": 15482, "AME": 30104, "Ġcaus": 37771, "ĠJihad": 35342, "ĠCharl": 15959, "Ġconstantly": 5861, "ĠCod": 22912, "Search": 39954, "Ġsuffix": 47503, "ĠChow": 19986, "Ġpure": 8309, "Campaign": 45526, "Ġsneak": 16082, "Ġentrusted": 29168, "ĠChristine": 10248, "Ġsuccessive": 12565, "emale": 49307, "olulu": 47969, "verts": 24038, "ĠFake": 24530, "Ġonions": 21568, "################################": 49674, "Ax": 39884, "2014": 16310, "ĠKashmir": 7525, "Gaming": 45313, "Ġsymbols": 19830, "oured": 8855, "Ġgrandparents": 15198, "rez": 13208, "Ġhast": 20534, "č": 50121, "ĠPric": 29931, "Electric": 40906, "ĠIPO": 9677, "Ġpractically": 15655, "Ġrapper": 9102, "Ġpatient": 3186, "ammu": 15614, "jri": 47019, "Ġpublishers": 14419, "ðŁ": 6569, "Ġvaguely": 35176, "ĠBL": 12413, "Ā": 50108, "Ġboring": 15305, "ĠRetro": 38684, "Ġsubtle": 12405, "Ġcush": 31601, "ocious": 42148, "Chuck": 40872, "Ġhope": 1034, "Ġgeological": 30694, "Ġjersey": 11458, "ĠDeng": 28077, "ĠPesh": 24307, "Ġphysically": 7217, "Ġmarine": 9580, "Ġtheoret": 48224, "log": 12376, "Ġfacebook": 10660, "ĠFired": 41969, "reference": 45927, "ousse": 29955, "Ġsampled": 36551, "ient": 4843, "ĠProgress": 11679, "ĠVortex": 45654, "common": 27278, "ĠCognitive": 42151, "Ġattacking": 6666, "Callback": 49706, "Max": 19854, "ĠRaven": 22546, "ĠPants": 42616, "Myth": 48162, "will": 6677, "Ġlivest": 49493, "ujah": 43051, "ference": 23861, "Ġscrimmage": 20367, "Ġordinary": 7945, "ĠCEOs": 17696, "ĠOptical": 36132, "det": 17701, "Ġattention": 1503, "abilities": 25264, "Ġlifelong": 15353, "Clock": 45918, "Ġfilmed": 10571, "Leaks": 43352, "Ġstead": 23789, "ĠJonas": 16732, "uti": 18078, "ĠKoran": 42244, "Ġmakeup": 7855, "Ġlooks": 1326, "ĠGarn": 24030, "ruary": 48540, "Ġorganism": 33993, "Ġpostseason": 7972, "heter": 31995, "Ġassass": 39257, "Mind": 34875, "ĠCalder": 20419, "urized": 41003, "ĠPod": 21752, "Ġstreamlined": 28455, "ĠCourt": 837, "namese": 47650, "Ġpoets": 33297, "Ġlabou": 30785, "Ġshareholders": 4071, "Ġbugs": 19230, "ĠCu": 10016, "ĠGross": 8675, "Ġmisrepresent": 24796, "Ġwildfire": 12688, "ĠHaku": 48700, "Ġ279": 37191, "ĠNon": 6965, "Ġpipeline": 4116, "ĠReduction": 34895, "annel": 28189, "Ġceiling": 9920, "Ġgardening": 23230, "Ġun": 542, "buy": 3746, "Ġoppressive": 33522, "Fans": 36624, "Ġexhibited": 22495, "ĠSerbia": 12933, "gc": 42406, "eson": 21564, "Ġoverload": 37636, "Ġsummons": 26542, "Ġpiece": 2125, "Ġneighbors": 6611, "taking": 16883, "quickShipAvailable": 50217, "Ġsupport": 323, "ĠThatcher": 28123, "Ġdependence": 20748, "Ġstock": 388, "465": 33544, "Mor": 30019, "Ġallege": 16336, "echo": 45276, "BS": 3297, "Ġfuzz": 44562, "Ġdrain": 15160, "Ġsquare": 3925, "Ġnortheast": 9489, "Ġcommentary": 9765, "ĠNixon": 12481, "Ġmurm": 43692, "Ġrealistically": 33539, "Ġopt": 7996, "Ġwhiskey": 25325, "burning": 33324, "Break": 39539, "wic": 33127, "nat": 26992, "Ġvers": 19431, "],\"": 17523, "Subscribe": 41848, "Ġerupted": 11376, "Ġregime": 4304, "stim": 41488, "ĠNicole": 9185, "ategor": 40918, "ĠPeck": 29550, "Ġindicted": 11933, "Ġtournament": 1967, "Ġinfo": 8574, "Ġrepublic": 16441, "iasis": 32716, "ĠWyn": 15523, "Queen": 21446, "Ġammo": 41346, "Ġturnaround": 11713, "Ġwealth": 4764, "Ġbeautifully": 16467, "Ġdiplom": 31038, "Ġprinted": 11118, "stein": 7864, "Ġliked": 6640, "ise": 1496, "grad": 18252, "ican": 12657, "Ġarchitectural": 19481, "ĠDistance": 40438, "Ġsuing": 15449, "Ġ271": 38362, "ĠFAM": 32113, "ĠKush": 29325, "Vol": 30616, "Ġoptimistic": 7168, "fortunately": 45779, ">>>>>>>>": 46844, "ĠDahl": 26380, "Ġsnow": 1958, "Australia": 25533, "aky": 18162, "IFIC": 36497, "ACT": 13709, "Ġhorror": 8444, "Ġvolume": 3149, "Flight": 41693, "ties": 23664, "Ġbroadly": 11237, "hom": 24792, "prises": 37796, "Ġwedd": 44398, "ĠSnapdragon": 17642, "Ġshells": 23647, "Ġpairing": 17496, "estate": 29359, "Ġ163": 28158, "mur": 20541, "grey": 43268, "YA": 35205, "Ġentries": 11410, "ãĤ¢": 49017, "((": 48461, "Ġsubmarines": 28642, "added": 26551, "Ġtestament": 17750, "Ġridiculed": 35482, "AV": 10612, "ĠNet": 5008, "Ġinduces": 45645, "ĠMastery": 47652, "Ġmatchups": 22732, "Ġstraw": 14482, "sounding": 36381, "å£": 49444, "giving": 18116, "ĠAmen": 36969, "Ġbarbaric": 38025, "DEN": 28082, "int": 2544, "ĠGerm": 24063, "ĠãĤ": 49188, "Ġ355": 37415, "ĠClassic": 7175, "ĠTW": 17535, "ĠEQ": 29612, "olini": 35257, "ĠLoki": 43836, "ĠHir": 19548, "Ġendlessly": 34280, "Ġinstant": 10062, "Six": 27696, "sponsored": 16032, "azi": 12934, "setup": 48672, "Ġtee": 13454, "ĠAlternate": 43510, "Ġstory": 527, "Ġcomprehens": 32616, "ĠIslands": 8594, "Construction": 43147, "Ġmachine": 3563, "reme": 21612, "az": 1222, "Ġcredits": 7751, "ather": 13860, "ĠHudson": 8187, "Ġstunt": 16391, "oyal": 24533, "Ġnicknamed": 24401, "Ġfourth": 887, "Ġprohibited": 9986, "Ġdeficiency": 30367, "ĠRG": 38281, "UTF": 44987, "Ġcomplications": 12385, "ĠBanana": 37969, "ĠNerd": 39160, "ĠIC": 8242, "Ġ1800": 18360, "ĠGlad": 15151, "Bug": 46379, "uced": 33862, ".\")": 30550, "kiss": 37750, "232": 28503, "Ġdens": 32709, "Ġneedle": 19012, "591": 40284, "Ġcla": 42108, "Ġclassical": 15855, "imen": 34620, "Orderable": 50213, "Ġprints": 19553, "Beck": 41495, "Re": 9064, "ĠDund": 15809, "ĠChina": 436, "ĠCele": 34486, "Ġfermented": 39903, "ĠHIT": 40562, "web": 10534, "Ġç¥ŀ": 49956, "ĠFridays": 21073, "opard": 23364, "ĠNau": 30661, "ĠAnita": 21915, "ĠOffer": 24027, "330": 21190, "ĠðŁĻĤ": 45868, "Ġnotor": 48687, "uterte": 46489, "Ġcomputational": 38163, "Ġding": 33676, "Ġsensible": 19653, "ĠTarant": 33005, "upon": 32630, "omon": 28344, "Ġspecimen": 38546, "Ġfatty": 27935, "Ġiss": 46682, "pp": 3807, "Ġhappening": 2909, "ĠRebellion": 42696, "Ġ1865": 43172, "illed": 12146, "ĠUnity": 19573, "Ġclashes": 10165, "krit": 46366, "ĠAmar": 19253, "Ġaliases": 44945, "ĠTina": 15720, "ĠHimself": 43570, "Ġalphabet": 34555, "Æ": 8188, "ĠCluster": 41261, "themed": 14694, "Ġentered": 2867, "olition": 40809, "Ġapologies": 27620, "Ġdarkest": 29985, "test": 21959, "ĠJi": 26333, "ĠAmong": 3687, "ĠGalile": 43583, "ĠCutting": 30692, "she": 8877, "Ġnotification": 12059, "Ġthou": 44761, "Ġeagerly": 23908, "Ġmonth": 353, "ĠKendrick": 21548, "Ġsafe": 1522, "Ġcoerc": 48993, "Ġhopeful": 7917, "Ġm": 475, "item": 36907, "Ġ209": 28036, "Ġsts": 49253, "Ġrehears": 22698, "Ġremix": 35150, "Ġmines": 12321, "Ġchiefs": 15201, "Ġcam": 11021, "Ġheavy": 2016, "Ġprefix": 46622, "Ġreductions": 14138, "Ġtomat": 47691, "ĠJames": 957, "Ġmil": 9209, "Ġboards": 6904, "Console": 49290, "ĠDob": 16149, "sectional": 46523, "zai": 23642, "Ġsquats": 43014, "Ġwildly": 17824, "Ġrecipient": 13160, "igrate": 38476, "ĠEug": 20926, "aturday": 47035, "Ġtra": 8419, "Hidden": 43024, "rax": 35054, "âĸ": 48584, "list": 8458, "Ġgoods": 3057, "Ġ1948": 21053, "oples": 46051, "Syrian": 38291, "ĠHog": 28464, "everal": 49771, "Ġwretched": 42824, "yout": 49297, "ard": 1120, "Ġconcerts": 12858, "ĠLori": 22421, "Ã¼": 2768, "Ġkilometers": 8130, "ĠSounds": 24661, "Ġorbs": 47218, "Ġ.)": 42296, "m": 119, "Ġbatt": 36325, "Ġeviction": 26950, "Ġchuck": 34600, "ubb": 16591, "Ġdread": 24506, "Ġ239": 30716, "Ġadoption": 7206, "Ã±o": 14182, "ĠDarrell": 25926, "Ġvain": 25876, "ĠInit": 47023, "ĠJenkins": 10065, "Ġslips": 25843, "Ġyawn": 39654, "Ġenumer": 41949, "Ġaddr": 49649, "Ġlibraries": 18146, "Hillary": 38655, "atin": 16779, "Ġcomedic": 29045, "Stan": 36118, "music": 28400, "Ġions": 41985, "Ġdevast": 41254, "Ġlap": 8040, "ĠUrban": 8595, "WORK": 45213, "ĠTorment": 48442, "Ġprimary": 2270, "oused": 26281, "rich": 5691, "Ġenabling": 10298, "Ġluxury": 4808, "ĠRepublicans": 1858, "utsche": 35816, "ĠMAG": 29505, "Ġeng": 20407, "ĠAnon": 46908, "IU": 36452, "trip": 30674, "ĠTours": 28254, "wan": 6531, "ĠPlaintiff": 39920, "PDF": 38506, "Ġwidely": 3924, "ĠFIN": 20381, "mop": 45267, "ĠR": 248, "=\"/": 49799, "ĠAT": 3263, "ãĥ£": 49513, "Ġstartling": 26556, "Ġacquisitions": 7617, "ĠTerry": 6840, "ĠSteelers": 7643, "Ġthri": 23113, "Major": 37038, "resist": 45407, "Ġrobotic": 20701, "ppard": 29447, "Scale": 43737, "tem": 17950, "Ġthro": 40282, "NP": 10949, "Ġdou": 25605, "Ġcries": 25355, "Ġmilliseconds": 44450, "bleacher": 16243, "ĠCth": 49678, "cluding": 19586, "ĠSwansea": 15338, "ĠInv": 9318, "ĠLeadership": 13046, "ĠWil": 3884, "ĠSpeed": 15707, "ĠFind": 6449, "ĠCarter": 5306, "ĠValkyrie": 45027, "iane": 26789, "Ġdepartment": 1494, "ĠDOI": 32058, "Ġgust": 9346, "ĠOst": 21932, "ĠWinn": 21938, "Ġdemonstrations": 10186, "Ġimpecc": 28462, "Ġ401": 17936, "Ġfielded": 24912, "ĠAG": 5680, "Ġskipping": 26756, "ĠTX": 12031, "ĠIgor": 29102, "Ġmischief": 26245, "Even": 8170, "ĠKant": 25340, "Ġteaching": 5307, "rise": 15839, "ĠManufacturer": 40735, "ĠOccasionally": 38998, "Ġbankrupt": 19117, "reach": 18645, "Ar": 8138, "ĠIdeas": 32853, "Ġoffspring": 28491, "ĠRuby": 19642, "ĠRacial": 41363, "ĠNem": 22492, "ĠEnh": 44649, "Ġbosses": 14063, "ential": 12986, "ONEY": 38247, "Ġprogresses": 26658, "esley": 36664, "Ġnaturally": 8366, "Ġbikini": 17059, "Ġgrin": 30986, "Ġdisgruntled": 29412, "ĠHannibal": 41273, "ĠCapt": 13007, "ĠBreath": 35419, "Ġascended": 41750, "Ġtrainers": 17120, "Ġge": 5473, "limits": 38942, "B": 387, "Ġ<!--": 49962, "ĠLing": 17900, "Ġeuth": 26822, "ĠSapp": 37151, "Pool": 27262, "movie": 38428, "ouston": 42185, "Ġprescribe": 30871, "Ġgrabbed": 7249, "multi": 42274, "Ġempowering": 18503, "apers": 24225, "383": 29980, "ĠFT": 18098, "Ġpath": 2718, "344": 31907, "Ġalliances": 22484, "Ġpredicted": 6126, "errors": 48487, "ruits": 41023, "357": 30628, "made": 7078, "Compar": 48080, "hammad": 44800, "ĠEquipment": 16647, "Gold": 20439, "Ġres": 5032, "ĠTraps": 47823, "Ġdom": 13567, "irin": 35811, "´": 20024, "Ġtapes": 23335, "ĠDiscussion": 34234, "Ġdisl": 19131, "reve": 21014, "uously": 26314, "ĠPerry": 6220, "Ġdetermin": 26948, "ĠStreets": 22346, "Ġbehavioral": 19184, "003": 33490, "Ġcommuting": 33039, "blog": 24635, "interested": 35471, "IME": 28417, "anqu": 42134, "Ġdesktop": 14050, "Ġinnovation": 4695, "Ġbetter": 357, "kat": 18287, "Ġmaximizing": 35195, "ĠCambodia": 16960, "be": 1610, "itches": 30312, "TI": 13216, "Ġreeling": 21589, "ives": 3699, "connected": 21618, "ãĤ¡": 49993, "Ġperjury": 35059, "Ġaforementioned": 15785, "Ġaccumulate": 29196, "ĠMajor": 5454, "Ġobey": 28616, "Ġsack": 14072, "ĠDo": 1832, "Ġfused": 42046, "gression": 42223, "Ġtubing": 40924, "Ġfertility": 21632, "letes": 25773, "ĠBarney": 32252, "348": 27765, "Ġdress": 3588, "ynthesis": 43122, "ĠBasics": 42143, "Ġbro": 11051, "opers": 18158, "below": 36195, "ĠCamera": 11149, "Production": 43306, "Ġscholarly": 40043, "Ġdividend": 2252, "wen": 11760, "Ġsettlers": 27258, "herer": 38728, "\\\\\\\\\\\\\\\\": 50053, "orthy": 32894, "Ġremotely": 18684, "Ġrefinery": 13628, "Ġtwins": 13137, "ĠBombay": 28197, "expression": 42819, "Virginia": 38477, "low": 5481, "Ġgasp": 41681, "Ġ1987": 11735, "Ġcatcher": 14078, "GET": 18760, "Ġzip": 23595, "egal": 45479, "ĠUEFA": 15082, "ĠSage": 26406, "inators": 35077, "Unknown": 44241, "Ġ311": 33067, "ĠLuis": 7866, "collection": 44443, "ĠmL": 38762, "ĠViolent": 36483, "un": 879, "Ġseasoning": 36638, "ched": 3804, "hift": 46853, "ĠLad": 17804, "Ġforum": 7900, "Ġmocked": 21989, "Ġuniqueness": 38895, "ĠBaby": 10517, "?)": 16276, "ocom": 43779, "ĠIbn": 43609, "Ġdwind": 30608, "ĠContrary": 35463, "ĠTaking": 10883, "Ġgazing": 40804, "orders": 28436, "ĠJackets": 20272, "ĠRL": 28483, "Yu": 41826, "Ġcheap": 6162, "##": 48342, "Matt": 19860, "Ġblasp": 44605, "ĠJapanese": 2898, "ĠHidden": 26234, "Ġmediation": 25646, "Ġfrenzy": 23244, "Ġculinary": 16820, "ĠAmanda": 10641, "ĠRug": 29599, "EY": 29867, "ĠBru": 11831, "Ġpoly": 11424, "ĠTibet": 30822, "defined": 30764, "ĠFrench": 1515, "Ġflow": 3041, "ĠGuru": 32341, "ĠIndies": 15878, "embedreportprint": 50171, "usal": 25016, "Ġcomfortably": 15995, "umbs": 29123, "Ġgrounds": 5619, "Ġresear": 39317, "Ġcoded": 40498, "Ġgenre": 11581, "esar": 19115, "ĠSomerset": 24011, "Ġnegotiate": 8654, "Ġapostles": 46360, "Run": 33177, "ĠContact": 4493, "anse": 31327, "Ġwalking": 3051, "Ġresearching": 21252, "Ġgravel": 26923, "119": 21397, "YY": 40969, "Ġknot": 17839, "ĠHispanic": 14362, "????????": 36137, "DIR": 47992, "Ġexpert": 3827, "Ġverbal": 14580, "ĠSHA": 42788, "live": 16244, "unia": 46472, "Ġtrough": 25921, "ĠCarlos": 6778, "Ġbombshell": 24332, "Ġ56": 4772, "ĠPoverty": 27919, "Ĥ": 9264, "REDACTED": 48686, "Ġpraises": 28506, "Ġalarmed": 23438, "Ġvisuals": 27010, "Ġrall": 48355, "ĠPik": 39020, "ĠColumbia": 4635, "ience": 11465, "Ġembraces": 28978, "Ġ\"+": 48615, "ĠClair": 26246, "Ġmango": 32184, "Adult": 46660, "race": 12326, "ĠYa": 23059, "ĠMedicine": 8029, "someone": 40100, "Ġdev": 8709, "ĠIT": 3779, "ĠBarnes": 10164, "ĠLancaster": 15038, "Ġtumor": 16570, "Dream": 27124, "ĠGABA": 47644, "Ġplush": 33677, "ĠFranklin": 6099, "ĠRom": 7827, "jpg": 10474, "ĠHol": 6217, "ĠNathaniel": 29299, "cking": 32370, "ĠYES": 32463, "Ġinstitution": 6786, "Ġstalking": 27795, "backer": 34350, "ĠRomo": 24560, "Ġawesome": 6344, "sol": 29837, "Ġhid": 20119, "Ġrounded": 14439, "Ġintervening": 29970, "omes": 9898, "ĠThrust": 47347, "Ġhandwritten": 30414, "html": 6660, "Gordon": 43226, "withstanding": 46551, "Ġyouthful": 22758, "direct": 27555, "598": 38097, "Ġhundreds": 2213, "ĠMorales": 17989, "Ġenrolled": 12751, "Ġretains": 23550, "ĠPyr": 45474, "achy": 35600, "ĠLewis": 3577, "ĠLee": 2094, "ĠDMV": 34743, "here": 10859, "ĠAbe": 8336, "Ġtransplant": 14067, "ĠShield": 17056, "Ġneb": 40639, "Ġhijab": 33811, "ikk": 21609, "______": 45627, "ĠSpy": 26982, "urtles": 48966, "Ġacquiring": 6819, "ĠWORK": 32008, "ĠW": 305, "Ġindoor": 11894, "ĠAnglo": 20798, "ĠGPIO": 48840, "ĠLib": 11135, "ĠTumblr": 9494, "Ġabst": 22182, "itative": 26709, "ĠBunny": 33470, "Ġobs": 39048, "reci": 19954, "ĠHappiness": 37842, "Ġunderway": 6159, "ĠRasm": 40675, "Ġgathering": 5660, "Ġpreserves": 36740, ")--": 43564, "Ġeagle": 19962, "Ġtelling": 2758, "ĠLocke": 33886, "Ġtranscription": 37118, "hua": 15363, "Ġ171": 29810, "channelAvailability": 50220, "ĠMother": 8133, "Â¶": 46143, "ĠAntonio": 4578, "Ġentity": 10014, "gered": 40927, "iosyncr": 49159, "ĠStrategy": 12660, "Ġnodd": 49594, "ct": 3894, "Ġfulfillment": 27125, "ĠPOW": 36306, "aft": 31741, "rams": 27809, "amar": 21216, "Ġimperson": 23153, "ĠNBC": 3890, "ĠBIOS": 46173, "Ġhapl": 48673, "Ġvanquished": 44400, "ĠHow": 1336, "Ġtob": 45510, "ĠAttribution": 45478, "ĠSuz": 30135, "ĠGrammy": 12727, "âĢ": 17, "Ġresided": 39578, "hol": 9649, "Ġmansion": 15906, "Ġaccording": 309, "Ġdecreased": 8065, "appro": 27666, "Ġsurprising": 6167, "Ġreaches": 11541, "ooky": 29093, "response": 41510, "igrant": 20593, "ĠTomato": 42446, "Ġunden": 49510, "ĠXer": 34436, "ĠMoe": 23865, "ĠGram": 14171, "ĠCreation": 37520, "()": 43048, "Ġnursing": 8701, "Ġclarity": 10498, "Ġ640": 37101, "ĠSorce": 48997, "Email": 46084, "Ġholidays": 6875, "ĠMoves": 39905, "Ġpale": 18100, "depth": 11583, "Ġhist": 33945, "ĠHumph": 16788, "byn": 44296, "Ġsalty": 31924, "Ġjazz": 11057, "uliffe": 49256, "urn": 8629, "asp": 9331, "ellect": 45255, "ĠTay": 18970, "Ġexpanding": 5222, "Ġrepealed": 29643, "Ġgoverning": 8182, "452": 36720, "ĠBrill": 41545, "Ġprotracted": 26420, "277": 31262, "Ġzipper": 43805, "ausible": 42500, "Ġmeticulously": 34586, "esson": 24711, "arious": 38313, "cription": 33112, "pretty": 28674, "351": 35340, "Ġprocessing": 5774, "rition": 46956, "surface": 42130, "ĠMcG": 7108, "Ġunauthorized": 18893, "Ġslender": 28701, "ĠHome": 2193, "¬¼": 49794, "266": 31353, "zh": 13808, "ĠKlein": 13730, "Proxy": 49115, "process": 31931, "ĠSharks": 10755, "track": 16026, "ĠGPS": 11921, "People": 4763, "Ġcontext": 5377, "rants": 25474, "Ġisolation": 13084, "etch": 29094, "Ġpardon": 19074, "termin": 42985, "ĠDisp": 34000, "Ġrepercussions": 24147, "Ġdisagreed": 19286, "ĠCartoon": 41453, "NFL": 12048, "Ġinstructed": 14027, "ensing": 21591, "ĠBon": 5520, "Ġintensified": 17757, "].\"": 28578, "Ġphenotype": 47810, "Ireland": 26737, "ĠALL": 12389, "Ġnickel": 19500, "ĠMatte": 21129, "uron": 39508, "status": 29552, "Ġpets": 10029, "Ġblank": 15818, "Ġshowdown": 13100, "Ġroaring": 29862, "Ġpeaked": 21174, "ĠOverwatch": 32736, "Ġblob": 45411, "ĠMelania": 12305, "ĠTale": 21802, "Ġbipolar": 31201, "ĠGrain": 33223, "Ġhysterical": 38561, "ammad": 41007, "âĨĴ": 48552, "Ġ1928": 34224, "orest": 45991, "ĠMedium": 22684, "odynam": 48009, "Ġfrogs": 38072, "ournaments": 45439, "Ġholdings": 4582, "Ġextant": 44772, "Ġtailor": 26090, "ĠOsborne": 17093, "ĠHearthstone": 46338, "--------------": 41110, "maximum": 41976, "close": 22641, "Ġbung": 26459, "Ġrequires": 3441, "enos": 36048, "Ġtranqu": 36474, "Bul": 40028, "Map": 41151, "Thankfully": 42948, "Ġsaf": 25277, "Ġsignage": 25152, "Ġsuffered": 2152, "ãĤī": 48945, "ĠDecision": 30300, "Ġâľĵ": 44192, "Ġphrase": 11054, "ĠBishop": 8163, "ĠKejriwal": 26796, "Ġhappier": 16265, "manufact": 29280, "Ġreservoirs": 29896, "cm": 13753, "picture": 37587, "Ġmit": 6286, "Ġstreak": 3963, "Ġdeft": 31063, "Ġdrafted": 9559, "outheast": 40440, "ĠISPs": 38094, "Ġspurious": 43310, "Ĥİ": 49974, "Ġchipset": 33009, "ĠPrompt": 42944, "Ġfavor": 4402, "Ġ386": 42161, "Ġintegrity": 7066, "Ġencoded": 45320, "killer": 30563, "Ġnumb": 31086, "isite": 46477, "Ġsir": 21958, "moving": 19838, "ĠMAR": 13766, "Ġpersistence": 31512, "Ġeb": 35331, "ĠPhotograph": 13489, "ĠGL": 12209, "ĠStri": 21836, "Ġlubric": 31450, "Ġprofession": 12409, "ĠAv": 5080, "latest": 44957, "stall": 33401, "region": 37140, "Lewis": 32828, "Writer": 45489, "ĠBac": 25328, "Ġanch": 34512, "Ġdesperate": 7764, "RE": 4629, "Tube": 47538, "Ġunderpin": 18035, "Ġprep": 12760, "Ġhatch": 22451, "Jon": 27693, "ĠConrad": 24078, "================================================================": 49936, "Ġprivately": 9638, "ĠNicaragua": 25687, "ĠFurious": 30139, "Ġmovements": 7467, "Ġplantations": 35933, "Ġdeviation": 38369, "ĠRoyals": 11530, "ãĤ¦ãĤ¹": 49985, "acies": 15668, "Since": 11321, "Solid": 45440, "rc": 22393, "ĠAlberta": 6055, "itated": 15114, "Ġsite": 1082, "ĠNeighborhood": 23579, "ĠHuck": 42424, "hw": 30826, "Ġcooker": 35572, "Ġentrepreneurial": 21368, "ĠReich": 24216, "Ġwashing": 14784, "Ġloyal": 8259, "Ġpartners": 2567, "arin": 15394, "Ġamnesty": 23306, "ĠKristen": 18280, "boards": 15659, "Ġinspired": 4083, "ĠIllusion": 45413, "ĠAero": 32363, "To": 3972, "729": 40125, "\\.": 49410, "Month": 43299, "ĠBuenos": 20803, "Ġattempt": 2120, "323": 32624, "ĠIOC": 16147, "ĠÎ±": 47188, "Ġsignalling": 29823, "sein": 36353, "//": 42326, "ĠEra": 24636, "zyk": 22133, "ĠOU": 38923, "Ġmanually": 24704, "Ġpaintings": 13013, "wark": 37232, "ĠLess": 10862, "Ġadvocate": 7156, "Ġnonviolent": 36887, "Ġhappily": 16534, "Ġcybersecurity": 13468, "dor": 32649, "Ġpineapple": 33336, "ĠRings": 32106, "Ġhardcore": 27482, "Ġscheduling": 19114, "onto": 27227, "1986": 43479, "Ġmisguided": 27422, "Ġexplicit": 16045, "ĠGOD": 41827, "ppelin": 38042, "Ġcomparisons": 17941, "amy": 12463, "Ġvolatility": 4975, "ĠMED": 22718, "etime": 16093, "anwhile": 49241, "Ġgoats": 26622, "Ġrupture": 37557, "],[": 49092, "Ġdismay": 22135, "ĠLeBron": 9517, "Ġtemperature": 5181, "itbart": 43701, "grab": 27300, "agraph": 44947, "Ġsparked": 6246, "role": 35080, "unic": 26488, "ĠMick": 13580, "ĠZoro": 47283, "Ġsod": 27928, "896": 41256, "Hmm": 47519, "Ġbroth": 31650, "Ġspanning": 19161, "ĠReuters": 1201, "953": 41663, "elt": 6607, "acco": 20469, "Ġflows": 7964, "Ġstopping": 8197, "Ġdescribes": 7448, "ĠShopping": 21261, "Ġmonkey": 25684, "fires": 23668, "annis": 31539, "Ġscratched": 25807, "Trend": 44439, "Ġ1993": 9095, "ursion": 29471, "Ġpauses": 36897, "cale": 34012, "Ġdeclared": 2998, "landish": 48453, "750": 10569, "aged": 4628, "Answer": 33683, "Ġbraking": 26500, "Connect": 31161, "Education": 39594, "Ġschedules": 15579, "immigrant": 28089, "Ġbabies": 7272, "Ġintangible": 32977, "Donnell": 21489, "Ġalias": 29853, "Ġunlawfully": 30372, "Ġcontradicts": 37820, "ĠRoc": 16809, "sofar": 48257, "there": 8585, "addr": 49439, "Ġdenotes": 45151, "Ġhill": 9910, "ĠCorruption": 28756, "ĠGus": 23325, "Ġspouses": 23161, "Ġgeared": 19595, "meat": 38542, "ĠBR": 6823, "valid": 42679, "ĠRica": 17458, "Expl": 43043, "Ġdementia": 12854, "Ġindignation": 42584, "Ġpurch": 37684, "Ġsterile": 38757, "ĠLol": 36293, "Bloom": 46794, "Ġstands": 3311, "Ġfurry": 31053, "ĠContract": 15739, "Ġ114": 15900, "Ġrecommendations": 4664, "parency": 24470, "ĠPlanetary": 43295, "Ġfunn": 29310, "idays": 32904, "Ġ::": 35965, "Ġnewsp": 48933, "enna": 18974, "listed": 11301, "Ġcoupons": 31822, "mom": 27363, "ĠDyn": 37996, "Ġwarranties": 40551, "STAT": 40106, "asper": 45120, "1994": 41525, "Did": 20328, "resy": 48255, "Ġinflated": 25013, "Ġaux": 27031, "Ġcrispy": 32042, "Ġç": 48283, "ĠDefinitely": 33826, "Ġbicycl": 34984, "ĠMaine": 6488, "Ġlaunched": 1660, "Ġpubs": 27437, "ĠVista": 13737, "Ġcornerback": 10971, "pai": 45385, "ĠMayo": 16951, "alert": 39383, "ĠAer": 14750, "Ġtrans": 6214, "Ġcopyright": 4857, "Ġrecognise": 11865, "Ġdrawback": 41113, "Ġmythology": 33875, "Ġppm": 42805, "ĠMadness": 30925, "ĠFalk": 21393, "ĠCape": 6268, "WAR": 25014, "elve": 41120, "Ġoutage": 17435, "Ġlasers": 34291, "Ġrice": 7666, "Ġgift": 4085, "?ãĢį": 49988, "Ġdominating": 17349, "ĠDak": 17564, "2002": 31099, "ĠSydney": 4290, "rend": 10082, "oof": 37298, "Ġstove": 25901, "Ġloses": 13585, "rescent": 41052, "Ġjerk": 35786, "278": 30442, "Ġorbits": 38786, "overe": 46699, "oton": 27334, "redits": 43933, "umerable": 49129, "éĹ": 49117, "manent": 39713, "endas": 44395, "tone": 32612, "Ġescaped": 8896, "Ġboutique": 19796, "ĠMathemat": 46828, "urb": 13157, "Ġfortunate": 10583, "Allows": 49634, "Ġappalling": 26027, "for": 1990, "Ġechoed": 13314, "Ġstitches": 31223, "ĠPCR": 45125, "fi": 9169, "ĠWatching": 26535, "Ġaw": 19267, "ĠDwar": 43712, "George": 25395, "orum": 32375, "Ġpept": 39950, "Ġwallet": 14952, "ĠThieves": 40036, "SourceFile": 50057, "Ġusually": 2333, "ĠClassification": 40509, "ĠArmstrong": 11406, "ĠKahn": 30636, "ĠNaomi": 17955, "Ġauth": 48639, "Ġzinc": 21919, "Ġcommanding": 20510, "Ġferocious": 31429, "Claim": 45699, "nox": 47484, "Ġdeduct": 23603, "248": 28654, "Ġgrace": 11564, "Ġslay": 33044, "ĠPit": 12670, "Ġstatist": 45747, "Ġsob": 18769, "api": 30602, "ĠAbs": 23709, "Ġhier": 29588, "Ġpicnic": 22297, "Ġfiery": 19068, "ĠEvolution": 28034, "Increase": 48139, "Build": 36590, "Ġvisualize": 39086, "obia": 33693, "gradient": 49433, "Ġshootings": 9272, "Ġworse": 3007, "Ġachieved": 4824, "\":": 7862, "æ": 37127, "oras": 38308, "Ġ384": 41285, "ĠGes": 17981, "push": 41935, "ROM": 41944, "Ġconquest": 41127, "ĠARM": 20387, "ĠMol": 10347, "ĠAudi": 12719, "Ġtry": 860, "Ġsoaring": 15447, "ĠReporting": 22100, "Fab": 36578, "Moving": 41780, "Ġassociates": 11904, "letters": 34063, "Ġanti": 1475, "video": 14406, "Ġwide": 1810, "cos": 16254, "ĠPrinted": 45338, "ĠSpac": 45290, "ĠSoccer": 10433, "ĠRefuge": 36228, "Ġreiterated": 8277, "Material": 47180, "ĠOh": 5534, "ĠFACE": 28928, "NW": 24430, "ĠPul": 13006, "Job": 43128, "vious": 24963, "ĠTowards": 39108, "amd": 45594, "ene": 2552, "Ġgroups": 1134, "ifa": 15247, "ĠLt": 8713, "Ġremake": 21280, "ĠCond": 12108, "Ġfavored": 15411, "ĠZap": 31308, "Ġadversity": 22837, "Ġcontro": 33370, "eming": 33303, "ĠCopy": 22279, "lords": 40739, "Ġprost": 22115, "kr": 32059, "Ġnonsense": 20175, "Ġqueue": 21021, "ĠIch": 28194, "Ġorderly": 27193, "elman": 16955, "pm": 1685, "orously": 38564, "auldron": 43403, "ĠVor": 22515, "reed": 29846, "Ġfitt": 35580, "hya": 18321, "Ġtherapeutic": 18441, "Ġinvite": 9603, "Ġconsolation": 23533, "ĠDate": 10566, "ĠKids": 9151, "ĠVil": 22153, "Ġspirits": 11656, "ahead": 16905, "Ġgriev": 34713, "ospace": 46215, "Ġswast": 36656, "ĠPurdue": 15824, "Ġpunishable": 28939, "ĠAsus": 28359, "Ġ1972": 15002, "Ġdisturbed": 22938, "Ġkinderg": 42242, "ĠCait": 18901, "Ġbelieve": 679, "Again": 34790, "ĠStan": 8995, "bel": 8494, "Ġpest": 19024, "ĠSpears": 25888, "ĠKnock": 32365, "54": 4283, "ĠUniversal": 9973, "Ġcerebral": 30817, "udging": 34432, "ĠDivine": 35970, "adish": 30068, "Ġnuance": 37784, "Ġ95": 6164, "Ġpreserving": 18368, "Ġfluoride": 38742, "Ġdriven": 3185, "ĠGlover": 22009, "Ġshrine": 24828, "ĠIndeed": 7908, "viation": 46021, "ivably": 40548, "Ġparticipating": 6051, "Query": 48382, "Ġincomplete": 20044, "arre": 19205, "Ġprotect": 1744, "ĠHarley": 17006, "ĠNickel": 24558, "Ġfreshman": 6047, "ĠHector": 23180, "Ġrapt": 34524, "Cook": 32963, "bowl": 37120, "ĠSleeping": 38682, "Purchase": 47933, "Ġpandemonium": 45235, "Mart": 13012, "Ġrecorded": 2673, "Ġreactors": 24157, "Ġstark": 12664, "ourt": 14103, "speak": 39397, "ĠFox": 2063, "Ġmade": 156, "Jamie": 39633, "Ġmanufacturer": 7508, "pur": 7748, "Ġsubcommittee": 29493, "ĠISI": 34489, "ĠDynamo": 37960, "Weak": 47025, "Ġbailed": 30584, "Ġshining": 21003, "ĠAnalog": 40691, "Repeat": 45764, "Ġwounded": 5424, "ĠRare": 28751, "Ġ;;": 49612, "ĠDOE": 38465, "Ġcontender": 12122, "airo": 14387, "Ġbuckets": 26598, "olver": 35934, "Ġprincipled": 37854, "lane": 21765, "ishes": 10776, "ĠBe": 1456, "igree": 46673, "Tweet": 44445, "Ġthinkers": 35251, "ĠLands": 24380, "mem": 25683, "VEL": 16641, "Ġsharks": 21278, "Ġstomach": 9377, "cv": 38635, "Jason": 24434, "ĠVersion": 35110, "ev": 3623, "ĠClayton": 13616, "ĠFn": 47377, "dd": 16134, "Ġurging": 7493, "Ġtorch": 24732, "ĠGal": 4537, "ĠLeah": 16184, "Ġprototype": 17715, "immigration": 31793, "Ġsmugg": 29132, "Ġsupers": 31716, "Ġ390": 35058, "Ġdozen": 4039, "abil": 14148, "ography": 10486, "Ġfortified": 34334, "ĠChristy": 28443, "ouble": 43591, "Ġpassengers": 3670, "ĠHann": 21530, "ularity": 42664, "Ġcreative": 3904, "ĠForest": 5761, "185": 23334, "ĠBok": 36335, "ĠKil": 9948, "Ġsuccumb": 38975, "Ġsweep": 9808, "noon": 20466, "ĠNotting": 45030, ":{": 49681, "Ġ383": 42610, "Ġanonymity": 7901, "ĠQin": 44147, "ĠWax": 33876, "Ġclashed": 18789, "gt": 19377, "Ġdesserts": 27519, "Ġpristine": 27441, "ĠCave": 24651, "Ġadditions": 14886, "Ġversatile": 16106, "Ġja": 14001, "Ġ257": 33921, "Ġ......": 48844, "onnaissance": 44455, "Ġnarrower": 34700, "screen": 9806, "Ġnasal": 35937, "ceived": 31597, "ĠHall": 1631, "ĠSoft": 12726, "Ġconsensus": 2899, "Ġcure": 13306, "Ġmalt": 34021, "Ġacron": 46431, "soc": 32460, "Ġappear": 2082, "lin": 2614, "ering": 2961, "ĠCritics": 11943, "ĠYouTube": 4037, "Ġintimidate": 27914, "Ġdaylight": 20335, "earch": 48114, "idable": 47551, "ĠSIGN": 17803, "Ġrumors": 8762, "Ġingested": 39840, "ĠAnimals": 24709, "ĠEconom": 17833, "ĠOrgan": 9171, "Ġ1971": 16344, "Ġfilibuster": 33109, "illas": 19485, "Ġconglomerate": 15814, "Ġchanges": 1022, "rations": 27748, "ĠCouncil": 1080, "uates": 24597, "ĠVoter": 32262, "changes": 34980, "rek": 27313, "Ġvape": 40634, "ĠInstruction": 41241, "vl": 41350, "Ġwishing": 17802, "iation": 16546, "Ġconsists": 10726, "ĠEk": 9623, "men": 2262, "Ġresponded": 2334, "ĠMSNBC": 20054, "411": 35775, "ĠRain": 8699, "Ġwrap": 10438, "Ġpupils": 12384, "Ġsynchron": 36719, "Ġ151": 25936, "Ġpercentage": 3164, "ĠFacts": 30807, "ta": 4349, "dra": 44842, "Ġflower": 14214, "Ġannounce": 4659, "Ġbeneficial": 10142, "ĠCord": 11931, "Eye": 29925, "Ġreliant": 24729, "truth": 36014, "peria": 46388, "OH": 11979, "Roman": 38962, "Keefe": 35442, "ER": 2076, "Ġsonic": 34753, "Ġplaces": 2127, "Ġcc": 41754, "ileged": 33421, "911": 37157, "Ġdomestic": 1897, "9999": 46847, "ĠLouie": 34488, "ĠIRC": 44756, "ĠSuns": 15884, "Ġfishermen": 16516, "Ġcheering": 16765, "Ġwitnesses": 6057, "ĠAviv": 19067, "702": 36521, "Ġ``(": 50007, "Classic": 44950, "Ġbegg": 39882, "Ġlaundry": 16937, "Ġconsiderably": 14299, "sl": 9996, "ĠMusk": 7315, "Ġproto": 43835, "letico": 12533, "ĠChap": 19882, ")))": 47619, "hematically": 41847, "Ġpromising": 6177, "ĠStanley": 4725, "Ġswapped": 28671, "Ġswap": 12313, "leness": 44373, "aday": 25028, "ĠInfinity": 17688, "Ġcontinual": 35641, "ĠLiam": 10143, "Ġredistributed": 3802, "Ġstrategic": 3461, "ĠLay": 15521, "Ġcoffee": 3895, "ĠQual": 13559, "lean": 21926, "ĠNarendra": 9975, "Ġsituations": 5458, "ĠTick": 39661, "Ġsecondary": 5929, "Ġgrad": 12003, "ĠConsolid": 22645, "imura": 41492, "daily": 16624, "Â»": 12686, "Ġconfer": 33181, "Ġuncontroll": 37580, "ĠBarbar": 40482, "Ġstabbed": 9229, "ĠGriff": 26736, "ĠOnes": 39381, "ĠFifth": 12892, "Van": 34230, "actic": 28201, "ĠSTART": 33714, "Something": 27827, "Ġladder": 16348, "Insp": 43195, "GU": 37133, "Ġpromotes": 15885, "Ġhistor": 23671, "Ġhorizont": 48389, "interpret": 41111, "575": 28839, "Ġsubsection": 45845, "Ġexhausting": 29583, "ĠChaser": 47000, "adle": 41903, "ĠWinchester": 30595, "Skill": 47937, "ĠOrig": 32432, "Ġcomple": 14156, "world": 8331, "Ġdownstairs": 28239, "efined": 38716, "ĠSmith": 1259, "Ġbreakthrough": 10118, "Ġstudied": 8069, "ĠRevelations": 45164, "math": 40051, "Ġretailer": 6215, "Ġovercome": 6647, "Ġ108": 13955, "Sarah": 33671, "Ġundertaken": 15050, "ĠLegendary": 33078, "rive": 25824, "ĠUSDA": 17716, "Ġpreventing": 9107, "hesion": 44231, "ĠRecovery": 16505, "Ġfriendship": 9330, "Ġregional": 2174, "Ġsurplus": 10499, "ised": 1720, "ĠConstable": 25218, "econom": 28310, "ĠKnight": 8695, "Ġ129": 21234, "gen": 4138, "dies": 38707, "Ġcounterfeit": 26160, "Ġomin": 43492, "Ġconstrained": 26525, "Ġ+++": 41500, "raining": 32155, "Ġmap": 5456, "ĠUpdate": 14686, "ĠWildcats": 10828, "uga": 20851, "riter": 37124, "Ġprosecut": 42308, "Ġreins": 16450, "berra": 45760, "Ġcd": 45584, "Ġdoctrine": 26944, "IL": 3063, "Ġlac": 21789, "Ġactivities": 1713, "Ġ312": 32490, "Ġlogically": 42531, "Very": 25101, "ĠMarc": 5908, "ĠIntroduction": 24474, "Ġblitz": 23492, "ĠGE": 10307, "Ġoun": 49584, "Ġrifle": 11642, "Ġfootball": 1037, "Ġgoalkeeper": 7551, "vote": 28465, "Ġdescrib": 47591, "Ġavoiding": 11473, "Ġparallel": 12980, "tf": 41407, "Ġhunting": 8217, "Ġdow": 38474, "Ġchange": 464, "Ġsurvives": 33387, "Ġrelief": 3500, "ĠMets": 9024, "WINDOWS": 49759, "Ġenemy": 8636, "Ġalleged": 1697, "critical": 25398, "Ġsitting": 2828, "ĠPlaint": 42946, "ĠQuinn": 10587, "ĠYugoslavia": 37869, "ĠTrey": 19568, "ĠAdvent": 27938, "Ġcorruption": 3198, "Ġicon": 9360, "ĠNM": 31736, "Ġ1926": 36721, "Ġcosmos": 42214, "Ġfeds": 34218, "Frameworks": 49668, "ĠFa": 16125, "Ġgentle": 16634, "âĢ¦.": 13361, "Mesh": 47775, "ĠDI": 15795, "Ġpistols": 38403, "Ġinside": 1025, "Before": 17206, "ĠNBN": 37738, "554": 38500, "ĠJC": 28675, "Ġhacking": 11597, "forest": 28236, "Host": 40534, "Mont": 24007, "ĠELECT": 36630, "agers": 14979, "ĠConnection": 29759, "/,": 46253, "Stat": 41706, "FO": 7942, "ĠDisney": 4672, "Ġstab": 16735, "èĥ": 48620, "ĠMerkel": 6580, "LAND": 12204, "Ġregiment": 38833, "Ġunivers": 35503, "Ġovernight": 4427, "Ġextensive": 4935, "ĠIncluding": 12526, "Ġbehold": 29308, "Ġmagazines": 15829, "Ġ1975": 14873, "åĽ": 47516, "BM": 13386, "bal": 8667, "Ġ__": 27148, "ĠRussian": 1083, "ukemia": 44336, "ming": 7059, "christ": 27790, "ĠSpeak": 34403, "processor": 45309, "pheus": 45632, "ĠOLED": 19741, "ĠScripture": 40616, "Ġpity": 31373, "ĠUnix": 47093, "Ġagricultural": 7119, "----": 44259, "Ġimposed": 5713, "ĠBeng": 30244, "Ñģ": 36709, "Ġparcel": 20301, "ĠEnd": 4680, "Ġpilots": 10695, "dn": 26812, "Ġdiscour": 40882, "Ġgenital": 30776, "ĠMandela": 18713, "atana": 45697, ".):": 38947, "near": 34664, "ARDS": 38623, "Ġpropaganda": 10934, "FY": 28409, "ijuana": 25491, "good": 8396, "Officials": 35779, "ymes": 33318, "ologne": 45825, "His": 9962, "unique": 34755, "technology": 31007, "FN": 38350, "ĠQuery": 44489, "Ġtheir": 49, "Ġdefendants": 9483, "ffen": 26127, "glomer": 49651, "Ġwhereabouts": 16130, "Ġacademia": 30017, "Ġdad": 4252, "ĠFriendship": 32013, "ĠDrops": 43534, "Ġsegregation": 24465, "Sports": 10554, "sil": 26239, "Ġthanking": 22787, "Ġcompl": 13000, "Ġsafegu": 28531, "().": 49123, "ÃŃn": 17010, "Scroll": 45133, "Ġmaj": 22878, "umers": 35954, "Ġpopcorn": 26639, "escription": 49934, "cerned": 37701, "odynamic": 35357, "ĠExhibition": 26359, "erved": 13539, "pie": 29669, "*)": 44431, "Ġtaxable": 26475, "ĠPyramid": 40811, "Ġ(<": 48082, "ogun": 37803, "V": 846, "Ġpretend": 17050, "iqu": 9071, "iance": 9862, "Ġesc": 11363, "ĠDen": 6743, "ĠRosen": 11998, "ĠCAT": 32295, "ĠWorkshop": 26969, "ĠFortune": 15938, "=-=-=-=-=-=-=-=-": 50024, "ĠProp": 13695, "IT": 2068, "Ġdepends": 7971, "ĠMassachusetts": 5517, "ĠBer": 4323, "Dead": 33838, "Ð¸": 35328, "oco": 11959, "Ġpastors": 31369, "Joined": 49501, "Fat": 41959, "ĠCollabor": 24807, ",": 6, "Ġfragments": 27958, "331": 34071, "farious": 48813, "sr": 37959, "Ġsucking": 37907, "ombo": 21931, "Ġindustry": 539, "Ġdecrypt": 45886, "Ġratified": 27504, "ĠRum": 13772, "Ġvideos": 3424, "}\\": 49712, "ĠCut": 13621, "168": 25676, "Ġcannibal": 38267, "ĠCON": 8748, "ĠSciences": 8841, "OSED": 41743, "Ġtrack": 1349, "Ġarriving": 7789, "bet": 14600, "Ġneuronal": 46282, "Ġbumped": 26663, "otos": 36796, "ADVERTISEMENT": 45037, "Ġcrochet": 44265, "credit": 32598, "ĠP": 221, "ĠOutlook": 11011, "ĠOn": 374, "CHAPTER": 49855, "Ġrequire": 2703, "written": 23460, "ificial": 37465, "ĠEverest": 26819, "Ġnecklace": 26922, "artist": 42921, "Ġreprodu": 37209, "Ġabsorbed": 22416, "ĠArmen": 31213, "Ġglad": 7785, "Ġrolled": 6387, "Ġwildlife": 7892, "uter": 13080, "ĩ": 6382, "Cra": 47137, "Ġtrib": 28406, "Ġraft": 18992, "ĠâľĶ": 45970, "Small": 34647, "Ġinert": 43783, "education": 30746, "Ġtabloid": 25135, "ĠHelm": 27567, "Ġbash": 12882, "Ġorganise": 23750, "ĠList": 9527, "Ġscor": 21516, "ipper": 8288, "IZE": 41697, "546": 39405, "ĠFamily": 3664, "awan": 17144, "ĠBung": 41577, "Ġ1973": 14757, "Ġdust": 8402, "Ġour": 84, "Ġcareg": 31745, "ĠPeace": 7774, "Ġcomputers": 7796, "Ġpolluted": 30002, "ĠComed": 32200, "Trust": 18823, "Ġè£ıè": 50192, "ĠChest": 23063, "Ġselfie": 13327, "Ġcaffe": 45167, "Ġshares": 327, "at": 415, "Ġadvancements": 23931, "pages": 40347, "ĠAxel": 28141, "ĠBMC": 30493, "Ġcrazy": 5373, "Ġcomedy": 5313, "real": 8726, "Ġsympath": 19023, "ĠMonthly": 27837, "ensitive": 43634, "player": 23233, "ĠFriedman": 20895, "ĠKop": 25791, "ĠRez": 36623, "EU": 14707, "Ġperched": 32842, "Ġextingu": 22913, "Growing": 36883, "Oct": 19144, "pathic": 42712, "Ġsummit": 3564, "ĠMens": 20730, "Ġgreatly": 8908, "ĠSponge": 41809, "Ġhostility": 22069, "rain": 9946, "ĠHapp": 15799, "Ġimperialism": 41426, "203": 25534, "Ġcorrected": 17261, "Ġunresolved": 29909, "ĠEvidence": 27956, "Ġcourtyard": 27130, "Ġï¿½": 44763, "Brad": 31632, "Applications": 46407, "780": 33066, "Rom": 38184, "Ġplum": 36838, "Ġdistract": 21943, "Ġsourcing": 24547, "Ġupscale": 22563, "Ġreconstruction": 18228, "otally": 27082, "Ġminds": 7283, "Ġrevisit": 23222, "Ġsurely": 8349, "Ġintervene": 13192, "ĠMaver": 28920, "ĠHaving": 5365, "ĠS": 208, "Ġbleach": 38317, "Ġvalidate": 28754, "Right": 13984, "Ġcomedians": 28972, "Ġdiligently": 28554, "Ġaccusation": 17984, "ASY": 44509, "268": 31145, "ĠTOP": 17918, "Ġglove": 19015, "ĠQur": 42878, "ĠCassandra": 35476, "Ġ289": 39613, "itual": 47388, "verb": 37644, "Group": 25976, "ĠBabel": 46060, "ĠFranch": 40013, "446": 33973, "Ġcollusion": 13712, "Ġ{{": 47517, "ĠCol": 3182, "Ġorg": 31118, "Ġusher": 24023, "Ġearthquake": 8969, "Ġovercl": 45591, "ĠShib": 41037, "efe": 25793, "ĠðŁ": 8103, "Ġnons": 43423, "Ġscrolls": 45726, "lon": 10849, "ĠstrutConnector": 50259, "arson": 24858, "Ġcult": 12308, "Ġcousin": 11204, "Ġlasted": 9200, "Ġfederal": 752, "tains": 30759, "ĠFoss": 31432, "ĠFlyers": 17348, "Ġoffenses": 13888, "phans": 47329, "Ġomit": 43388, "missing": 41947, "Benef": 47054, "474": 35761, "ucked": 23289, "iture": 19103, "Raven": 43077, "Solar": 44559, "Ġcorresponding": 12337, "omas": 27745, "Ġcumbersome": 36190, "uzz": 13299, "Ġevade": 25866, "Ġgastrointestinal": 36805, "Ġorigin": 9813, "blance": 49267, "ĠJosÃ©": 23087, "Ġvents": 35002, "SU": 10466, "ĠExtensions": 46942, "ies": 918, "Ġincrease": 712, "Ġwanting": 6923, "Ġtoddler": 16290, "ĠPlato": 44207, "ĠMarlins": 13107, "Ġechoes": 25970, "Ġrpm": 36461, "Ġheels": 8872, "Ġinteracted": 34326, "ĠGiant": 21606, "2009": 23301, "Ġgraft": 19433, "ĠLogin": 38927, "ency": 6761, "Ne": 14563, "United": 20556, "Redditor": 49841, "ĠElvis": 20131, "ĠElectricity": 28501, "obs": 14247, "kB": 47383, "ĠSauce": 37288, "ĠTowns": 22155, "Ġpancreat": 30737, "ĠExpl": 16161, "Ġatheists": 45008, "club": 21858, "Ġoy": 23136, "©": 15375, "Ġsi": 3391, "Ġquickest": 29155, "Ġrecord": 638, "Ġsymbolic": 16868, "ĠSports": 1847, "Ġatmosp": 43118, "404": 32957, "Ġmocking": 27813, "ĠGrizzlies": 18710, "Democratic": 38729, "ĠSunday": 395, "Ġopportun": 23609, "Ã¡s": 6417, "Ġsill": 38052, "ili": 4715, "ushed": 17387, "Ġfrag": 24275, "Ġhypocritical": 37769, "ĠRiley": 9817, "ĠMetropolitan": 10718, "Ġboils": 36023, "pdf": 31494, "Ġappro": 44766, "Ġcombines": 15678, "ĠRey": 15278, "Ġ1952": 26891, "Ġpropelled": 23396, "thin": 31507, "ĠDAR": 37268, "Ġsigning": 3442, "ĠAdds": 39587, "Ġcripp": 40062, "ãĢģ": 47341, "Ġcon": 2764, "Years": 43937, "549": 36476, "Sax": 44657, "pend": 43238, "ĠOur": 1541, "Ġerratic": 25470, "akespe": 47455, "603": 37663, "aea": 38847, "lander": 14862, "Ġescapes": 34626, "Ġquoted": 5304, "Ġdrilling": 7802, "Ġ().": 48989, "ĠThankfully": 19883, "Ġpredictions": 12535, "Ġrescue": 3906, "Ġassertions": 29947, "ĠLAST": 32803, "ds": 11622, "Ġroad": 921, "Ġmicroscopic": 38292, "ĠLarson": 17834, "carbon": 23612, "Ġaspiring": 18885, "York": 31609, "515": 36565, "ĠRyder": 15245, "Ġreminding": 19327, "ĠFreem": 44360, "Ġ(\"": 6697, "Ġexit": 4205, "Ġ335": 33452, "ĠMoreno": 20591, "Ġtrance": 45080, "Ġsupposedly": 14032, "Buzz": 38301, "Ġcampuses": 14339, "CAP": 28494, "Debug": 49714, "ĠLakers": 6772, "Ġmaterially": 11463, "Ġparasite": 37004, "ĠProxy": 45571, "quarter": 4409, "stro": 26764, "uba": 10452, "ogeneous": 42019, "ĠIndigo": 40502, "amiya": 45554, "Ġwinger": 10331, "xtap": 48343, "Ġcho": 14310, "Ġshorten": 34725, "ural": 9799, "ĠBeacon": 25207, "Ġcle": 12479, "Ġcommod": 42017, "Ġimplementations": 42993, "Ġarts": 5444, "ĠHaas": 21686, "ĠSchro": 21877, "Ġrewarded": 14986, "ĠCelebr": 19736, "Ġvow": 27578, "gre": 28819, "MH": 38092, "Ġloopholes": 29307, "ĠMMO": 46359, "Ġsuited": 14756, "Ġankles": 35713, "ĠClinic": 14107, "Ġplanes": 8449, "Pay": 24522, "ĠPanther": 15148, "Ġconstitu": 45325, "Ġpornographic": 38739, "ĠEducation": 3061, "Ġcensorship": 23915, "Ġsweats": 22861, "utral": 37153, "ower": 8285, "Monitor": 45015, "Ġdared": 28335, "Ġshortstop": 17189, "ĠTER": 28107, "lings": 16283, "plement": 40224, "ances": 5332, "Ġasylum": 6702, "131": 25433, "Ġproducers": 4426, "login": 47828, "Ġbeen": 57, "ĠLords": 26608, "acl": 40054, "Ġsitcom": 22195, "ĠJoan": 14557, "ĠBare": 22888, "Ġdemonic": 43116, "ĠLEDs": 37274, "Ġsnapshot": 24512, "ordial": 44577, "ĠDust": 25953, "ĠBol": 9166, "Ġoverlay": 37829, "Bear": 40237, "Ġcrem": 26773, "ĠNFC": 11119, "Ġdorm": 18344, "Ġanarchists": 45232, "Ġheater": 33013, "Ġbiologically": 43137, "ĠBle": 16463, "ĠSgt": 9236, "ĠCH": 3858, "Ġhealthy": 2245, "Ġequality": 9057, "Ġab": 4091, "Ġskinny": 22877, "Ġinstallments": 36691, "ĠMorph": 44550, "wrap": 45705, "Frame": 46766, "Ġpict": 40123, "Ġindo": 48783, "Ġspecifics": 16047, "Ġexasper": 34698, "linear": 43871, "Ġsurround": 21104, "Ġchildcare": 25027, "plane": 28885, "Ġsum": 6797, "distance": 27861, "tec": 26838, "Ġbenz": 39862, "Spec": 45032, "Ġdisadvantages": 38940, "Golden": 31704, "ĠSavage": 18654, "Ġtraced": 21069, "Ġothers": 643, "Ġcounterterrorism": 29756, "ĠWyatt": 18876, "same": 41690, "Ġwhichever": 29047, "Ġreplica": 24633, "ĠFR": 7136, "Kind": 39126, "Muslim": 19952, "Ġordained": 36433, "Ġzoo": 14188, "Ġ65": 3620, "ĠRevised": 41114, "ech": 7529, "ĠMedals": 45578, "ĠGareth": 13600, "ò": 50096, "ĠCook": 4350, "moon": 16956, "Ġregistered": 3382, "Ġcomput": 44316, "ĠHERE": 9443, "Ġsimultaneously": 11586, "aband": 31865, "Ġprosperous": 23275, "Ġcompatible": 16632, "ãģį": 49045, "ĠGu": 2646, "Ġearthqu": 49857, "Ġcubic": 15768, "ĠConduct": 20538, "Ġassumption": 15480, "Ġannoy": 36074, "Ġconflicted": 34428, "Ġcompetitiveness": 17755, "ĠSov": 41162, "Ġatro": 35790, "pre": 5234, "Ġantioxid": 49276, "Ġreminiscent": 20455, "aucus": 43710, "Ġfatal": 6484, "Ġimmun": 13998, "ĠCake": 32298, "herence": 40584, "Acc": 36984, "Flying": 45499, "Ġforce": 1370, "Ġassessed": 11852, "bees": 41304, "ĠMorton": 18967, "ĠAns": 16866, "Ġejected": 20621, "ĠISIS": 7550, "ĠMali": 16193, "ĠUtt": 31498, "ĠDer": 6113, "ĠCities": 15337, "perse": 48274, "Ġsyrup": 21580, "ĠSX": 33040, "Ġcapabilities": 5587, "lishes": 46808, "uments": 30179, "ĠSomehow": 32735, "miss": 17745, "rand": 22103, "Ġcomforting": 29090, "Ġtragedy": 6906, "Ġacquaintances": 37069, "Ġ>": 8061, "Ġoption": 1973, "ĠAnaly": 4749, "Ġ148": 24646, "Ġapiece": 14871, "396": 33275, "Ġdeciding": 8997, "Ġfloat": 15754, "lie": 11527, "ĠHindi": 19840, "Ġnamespace": 49010, "iet": 5810, "ĠRevival": 34100, "Ġ2007": 3010, "Ġplural": 35691, "Ġemission": 22679, "ĠRoma": 12218, "Actor": 40448, "abus": 37039, "Ġhoc": 36401, "Ġ>=": 49095, "Ġeconomic": 776, "Ġskies": 12034, "ĠForums": 43514, "gew": 23740, "Ġplace": 317, "Ġtextile": 21664, "ĠDest": 27769, "Ġmantle": 30849, "1200": 36643, "Ġangle": 11792, "Ġenvironmentalists": 28495, "ĠFrost": 16334, "ĠElectro": 32893, "ĠCort": 16138, "Ġelephant": 18274, "Ġjealousy": 37146, "adj": 41587, "Ġassaulting": 13511, "oney": 6071, "Ġpromul": 47469, "brainer": 31246, "urity": 25075, "ĠPlum": 26356, "NYSE": 2554, "Ġokay": 8578, "Ġmortgages": 16017, "Ġcannabinoid": 44351, "Ġcharging": 6489, "won": 17526, "ribute": 25006, "Ġgigantic": 28880, "Ġhomicides": 24771, "icans": 37260, "Ġexport": 5376, "Â½": 14989, "ĠVes": 24602, "ĠNETWORK": 31631, "maker": 5406, "Ġnumbered": 30390, "ĠDaly": 20052, "ĠÎĶ": 48543, "Ġsocialists": 42371, "Ġneur": 41213, "Ġfork": 20935, "haw": 11900, "OPA": 43013, "Friends": 36042, "Ġpund": 30297, "Ġlions": 25711, "Ġsponge": 36499, "Ġvenerable": 38162, "Ġ339": 36885, "Ġswitches": 21737, "Ġauthorize": 29080, "ĠNaked": 37025, "versions": 44784, "Ġrigorous": 17109, "Ġmeasurable": 31087, "background": 46776, "Ġchop": 27804, "Ġsummed": 27446, "Ġmainline": 42656, "Ġcompact": 12549, "Ġquestionnaire": 31067, "Ġdelivering": 5830, "wheel": 13630, "red": 2050, "Ġcrib": 36598, "ĠMasquerade": 46967, "ĠTitans": 9642, "Ġcombination": 4069, "Ġslee": 30145, "Ġtires": 12310, "Ġah": 23184, "Ġnearer": 38044, "Ġworn": 10610, "ĠãĢĮ": 49648, "irms": 21871, "Ġeuphem": 41569, "ĠJudiciary": 11719, "Ġrug": 28862, "Mother": 34266, "mill": 15466, "Read": 25439, "Use": 34447, "safe": 22725, "ones": 6909, "Ġranked": 4173, "@#": 49436, "ĠDh": 8086, "ĠDuel": 45342, "Ġbidding": 11754, "My": 2387, "ĠBees": 35589, "omin": 18121, "Ġthighs": 35841, "ĠRooney": 14769, "Ġgameplay": 23841, "Ġportals": 39605, "ĠPak": 15776, "Ġmaintenance": 4861, "ĠCovenant": 32975, "ĠNJ": 10585, "ishers": 21272, "Ġrecipients": 11940, "Ġ529": 37822, "Ġkillings": 8798, "partisan": 29247, "Ġhardware": 6554, "browser": 48024, "Ġ$(": 44612, "ĠKnowing": 25225, "Ġsoftened": 29745, "Sales": 28188, "Ġirritated": 35270, "Ġgrasping": 41991, "Ġdiets": 22669, "Ġhashes": 48231, "ĠBreaker": 45800, "ĠBayer": 20799, "Duration": 49404, "Ġhelm": 13885, "ĠCrash": 30522, "icipated": 45500, "ĠEdwin": 21972, "ĠInform": 33929, "Ġstretching": 16539, "Ġreceptions": 15468, "Ġprosper": 30435, "Ġcement": 10546, "AAAA": 45612, "Ġresilience": 13790, "ĠPractice": 22084, "ĠMcGee": 22982, "Ġhumanitarian": 6727, "Ġpenny": 20879, "795": 36346, "ĠCy": 9384, "nikov": 32371, "Ġhaven": 2220, "ucky": 19873, "orses": 34225, "Ġwithdrawing": 20049, "Ġmarket": 210, "ĠSoc": 14585, "Ġaround": 198, "formance": 47196, "ĠPortsmouth": 19611, "Ġpanicked": 28604, "Ġfig": 29959, "ĠDesire": 34259, "ĠTechnique": 46252, "Ġmusical": 4388, "atars": 40487, "Ġaspects": 5894, "ĠLikely": 37259, "Ġhugely": 13481, "Ġfunding": 1435, "Ġrelics": 41032, "Ġstatically": 48567, "owed": 9725, "ĠUr": 9163, "Gear": 45298, "hon": 16769, "ĠJury": 28492, "Ġplag": 33883, "Ġpreempt": 35333, "Ġprobation": 9505, "Ġhaunting": 29475, "ĠProsecut": 39039, "Ġforming": 12748, "attered": 26252, "esthesia": 43729, "Ġbarred": 12678, "RA": 4396, "ĠBob": 3045, "698": 38080, "Bone": 45281, "ĠOCD": 42434, "emp": 37655, "ITION": 25815, "HE": 17779, "?!\"": 43775, "Things": 22616, "<": 41552, "Ġjails": 25559, "Stew": 44317, "Ġprobable": 15186, "Ġ&": 359, "Ġ2017": 193, "ĠTao": 27494, "Ġregenerate": 42901, "Ġratings": 2945, "Previously": 45095, "ĠHear": 16321, "Ge": 20981, "ĠAllows": 46729, "ĠBarn": 8514, "ĠMarin": 17700, "ĠTrafford": 13592, "ãģª": 48247, "Ġawhile": 29402, "ĠSantiago": 13823, "Ġramps": 27465, "Ġgreenhouse": 11832, "Ġdiplomat": 12176, "Ġ(%)": 32965, "tan": 31518, "tops": 27569, "ĠRosenthal": 32194, "azeera": 43734, "Ġhippocampus": 45107, "Ġcargo": 9145, "692": 39311, "ĠChili": 32878, "Window": 48098, "Ġoverwrite": 48605, "ĠIslamists": 26729, "Ġforward": 556, "Ġcad": 12260, "Ġusage": 9453, "ĠAadhaar": 23296, "ĠToro": 23030, "max": 29459, "Ġ;": 25606, "Ġachieve": 3042, "Ġprimarily": 4212, "bow": 14271, "Ġ48": 2929, "ĠMull": 10605, "confirmed": 30677, "Ġbullpen": 11524, "ĠFreeman": 11460, "asio": 20821, "ref": 13043, "Ġoccupancy": 22526, "Ġanybody": 5670, "Ġpixels": 24983, "growing": 11600, "Ġcovers": 4865, "ĠFeaturing": 27901, "Ġinitiate": 14646, "ischer": 32949, "Ġsq": 17895, "ĠEpidem": 42443, "ĠManila": 13121, "ĠScores": 26341, "Ren": 34837, "Ġdisable": 33022, ">(": 49925, "Ġnegate": 41405, "Ġfixture": 12319, "Ġfundamentals": 14584, "adena": 42728, "ĠHerald": 8521, "Ġdetermined": 3030, "thinking": 22710, "Ġ[+]": 49632, "Ġtraining": 1058, "undreds": 40530, "reason": 41995, "Ġsubdu": 47682, "Ġprotecting": 6244, "Ġvision": 3360, "Ġabras": 37722, "Ġdebtor": 43757, "NOW": 42218, "fw": 44860, "Ġcontractor": 9254, "Ġreferred": 4997, "Ġworry": 4022, "ml": 18517, "Ġpork": 12072, "ĠMafia": 37516, "ĠIG": 17374, "Ġclarification": 23764, "ĠAmtrak": 23160, "basic": 42607, "Ġgirl": 1816, "Ġsizes": 10070, "Ġcovering": 4631, "also": 19726, "Ġcirculation": 17268, "lt": 7984, "Ġslice": 15711, "fit": 14307, "ĠSHOW": 31524, "Ġseparat": 44269, "ĠHDR": 22899, "Ġsoldier": 9716, "Ġsprawling": 16322, "Ġrival": 3429, "Ġbeware": 36798, "ms": 4339, "ĠMorse": 30647, "Ġorganize": 14192, "ĠPortug": 44359, "Ġbrewing": 20525, "Ġelastic": 33827, "Ġbent": 18822, "Ġ------": 36738, "Ġeyeing": 21754, "ĠBrune": 32980, "Ġdistracting": 33197, "Ġnumbering": 42541, "ĠLose": 38551, "ĠYi": 27556, "Ġcuts": 2599, "Ġfollows": 3905, "âĸĪâĸĪâĸĪâĸĪ": 49881, "ĠNottingham": 17142, "gin": 11405, "ĠStronghold": 48644, "Ġpa": 6044, "ĠMush": 21804, "Books": 38108, "ĠTian": 22336, "ĠMonkey": 34546, "880": 32954, "Ġstressing": 20123, "ĠAct": 1783, "BB": 7405, "Ġcooking": 6836, "activated": 32362, "Ġepoch": 43660, "ĠVac": 20271, "Ġion": 31973, "Ġenhances": 27460, "ĠUnlock": 43076, "ĠMedina": 22269, "Ġrefurb": 17880, "Ġantidepressant": 44149, "affected": 31410, "gets": 30900, "Scientists": 40816, "ĠYahoo": 10354, "Ġadvertis": 39634, "183": 30662, "izing": 2787, "ĠCarney": 19558, "ĠGroup": 826, "chet": 23024, "ĠHydro": 19019, "anton": 19425, "Ġcoordinator": 6088, "ĠEB": 33502, "ĠHitch": 42519, "ĠCarlson": 15988, "Ġapp": 1553, "essor": 33728, "mitted": 13979, "Ġsandy": 33813, "Ġed": 4803, "Ġrecruit": 9584, "ĠRecent": 12845, "Ġchilly": 23141, "Ġ2015": 570, "KT": 33893, "Sel": 39736, "Ġcheer": 9450, "Ġpr": 3349, "Vert": 42195, "spin": 36613, "Ġfaster": 3845, "ĠGabriel": 8719, "modified": 44887, "Ġcollege": 1564, "III": 24457, "faces": 40289, "aline": 34637, "Ġspears": 45139, "1007": 47281, "wu": 13104, "docs": 44071, "Ġsuff": 15544, "CP": 7496, "ĠProto": 45914, "Ġvig": 28131, "ĠForrest": 22647, "vari": 41554, "Player": 35605, "icago": 42938, "Ġdarn": 33800, "Ġcrawling": 33265, "æĺ": 48647, "Ġinexpensive": 23107, "ĠDone": 21220, "Ġpartnerships": 8670, "Ġfreshwater": 34769, "Ġbe": 28, "Ġnem": 20775, "Ġobscured": 38285, "Ġunmatched": 32589, "aws": 17415, "ĠStreet": 852, "ĠAxe": 42272, "ĠScar": 16400, "cipline": 38231, "Ġlimitations": 11948, "ĠLIFE": 34424, "ributes": 13183, "Ġ:(": 46225, "ĠJ": 344, "renches": 45671, "urnal": 37734, "Ġinstalled": 5923, "GES": 39790, "Ġcontributors": 17233, "ĠViktor": 22076, "Ġapplicants": 10858, "BY": 19058, "whether": 29676, "uble": 26633, "ĠWii": 33500, "Ġviral": 7696, "Ġreinforce": 19510, "Menu": 48301, "ĠWrit": 44740, "Ġmarital": 30615, "Ġoverloaded": 40894, "ĠLuthor": 47870, "ĠExplosive": 42837, "Ġflight": 2524, "Ġconsum": 20411, "Ġmet": 1145, "arma": 15277, "583": 39123, "Ġdup": 17073, "Ġadded": 355, "1992": 41073, "Employ": 38031, "rpm": 43773, "ĠDanger": 34880, "Ġobsessive": 36003, "Ġans": 33141, "Ġsurve": 27994, "Ġ1939": 28234, "uff": 5865, "amo": 12705, "Ġmethod": 5448, "Ġutilizes": 33778, "Ġdoomed": 23326, "åĩ": 48635, "ĠMild": 31426, "Ġliberty": 17574, "Ġcontinents": 27382, "347": 32532, "Ġrunners": 8437, "Ġcentral": 1353, "Jet": 21608, "ĠWATCH": 10187, "âĢ¦âĢ¦âĢ¦âĢ¦": 45876, "ĠGerard": 19332, "Ġapocalypse": 36372, "Ġstandby": 28611, "ĠPicture": 5311, "aken": 12578, "what": 12196, "Ġchurch": 2352, "CAST": 40549, "Ġreasonably": 15646, "ĠEconomics": 14904, "panic": 46067, "Ġsy": 13550, "ers": 268, "Ġprostitution": 23105, "south": 25515, "Ġboiling": 27513, "ĠVilla": 12470, "ĠMODULE": 49736, "Ġhesitate": 21587, "Ġdeepest": 19762, "Ġprepaid": 29718, "Ġalternating": 36830, "ĠBust": 20163, "Indeed": 40566, "tained": 43672, "080": 32089, "Ġmat": 7821, "fed": 21967, "ĠTracking": 36549, "Ġwounds": 9308, "×©": 48352, "izard": 44417, "ĠPubMed": 48851, "ĠProc": 33046, "Ġcoerced": 36472, "ENT": 5382, "Ġinvoke": 32550, "Ġideological": 18273, "Ġrecognizable": 27308, "Ġextravag": 43877, "Some": 6323, "Ġalteration": 39752, "cery": 36597, "Ctrl": 48719, "akery": 45600, "otide": 46163, "ĠREAD": 3460, "Ġ52": 3135, "ĠFrag": 35233, "Ġrevolutions": 41772, "ĠSlay": 40413, "ĠVelvet": 37876, "ĠCompass": 29053, "Ġrelegated": 23101, "ĠYeah": 8976, "Ġchiefly": 39266, "fox": 31587, "leted": 36140, "Ġmalf": 36432, "Ġentertainment": 4000, "Topics": 49020, "ether": 17517, "Ġthinly": 33058, "Ġunfinished": 28402, "ĠRobinson": 5380, "pos": 11474, "ĠLiz": 14359, "Ġgalaxies": 30948, "Ġpoorest": 19125, "awed": 32211, "ĠStone": 5482, "ĠMech": 45541, "Ġmisdem": 32813, "Ġsqueezed": 21654, "Ġcheek": 15401, "Ġmem": 26012, "Ġmandated": 17171, "Ġoverwhelmed": 13203, "Ec": 44220, "Ġprecinct": 30285, "Ġworkers": 1138, "Ġmundane": 31215, "Ġ\"âĢ¦": 28553, "ava": 8604, "tailed": 27970, "Ġsanctuary": 13488, "ĠProceedings": 38673, "ĠLittle": 4046, "oker": 21783, "Ġdecomp": 38825, "ena": 4242, "Ġsection": 2810, "Ġamplifier": 42521, "Ġbrew": 20040, "ĠPatterson": 11340, "ĠSimpsons": 36942, "Ġharassment": 4331, "Ġconspiring": 27230, "Ġdealer": 12269, "Ġ345": 32613, "IO": 6454, "iya": 10252, "Ġimmobil": 43846, "Ġ236": 34962, "ĠFront": 7204, "KI": 38447, "ĠGerrard": 28822, "Ġé": 48430, "Ġmismatch": 37109, "ĠMetroid": 46103, "nels": 40543, "Ġgaze": 28341, "Ġtouching": 10238, "ths": 15561, "ĠPrimary": 11518, "oru": 40732, "ire": 1885, "bring": 29715, "idget": 20356, "OLOG": 38054, "313": 32827, "Ġtechnology": 806, "ĠPeaks": 30851, "udd": 7027, "855": 33450, "ĠAnimal": 9678, "Ġpumps": 15555, "ĠLaure": 17263, "Ġcute": 11962, "Ġ?": 17487, "ĠSwordsman": 49610, "KE": 6961, "ĠGame": 2436, "obil": 31474, "ĠTat": 17734, "Ġtablespoons": 25119, "Mex": 35695, "phabet": 47321, "Ġscope": 7401, "Ġrecal": 34973, "lem": 10770, "Ġhorrors": 30178, "Ġpursu": 44276, "nu": 18373, "GV": 37838, "icates": 23020, "ĠScotia": 16229, "ĠCertificate": 28364, "?\"": 1917, "ĠDeep": 8248, "Flickr": 44498, "Database": 49187, "Ġcoincided": 25701, "Ġcreat": 34113, "Ġinsufficient": 16429, "Ġfaith": 3975, "ĠHamm": 24782, "Ġhypothetical": 29927, "ĠReduce": 38053, "ions": 2485, "ation": 1258, "Ġprocessors": 17852, "Ġtransform": 7891, "Ġcomplexes": 34003, "Ġrequired": 1552, "boxing": 35687, "ĠOlsen": 22497, "alk": 9707, "Ġhair": 2549, "Ġwaging": 31555, "Brow": 46306, "Ġwarn": 11345, "ilingual": 41586, "ĠEd": 2344, "checks": 28511, "ĠShal": 25400, "Render": 48440, "ĠToll": 19466, "ĠPist": 31743, "Ġhardly": 7533, "Ġpackage": 3737, "E": 717, "ĠMarcel": 16263, "ĠCoc": 23344, "Ġpractitioner": 29764, "Sexual": 44598, "ĠNurs": 24583, "Ġnutshell": 38705, "Ġtriglycer": 45426, "ĠAth": 17463, "ĠTaylor": 2657, "Ġpledge": 9461, "Ġinfluencing": 22405, "Ġcolle": 47817, "Ġscarcity": 28227, "ĠStick": 23731, "Lv": 46771, "Ġgrid": 7961, "ĠThu": 20924, "ĠAwakening": 44506, "ĠVale": 14467, "Ġtally": 11154, "Ġswitch": 5405, "adin": 28585, "sever": 30453, "Ġhampered": 21757, "Ġrestrooms": 31720, "Ġscouting": 21986, "ĠWh": 3990, "EDIT": 24788, "ĠSask": 15531, "nee": 14209, "ĠMARK": 15231, "Nar": 45787, "Ġagree": 2854, "Ġinfall": 45546, "Ġincompetent": 30740, "Nit": 46790, "arten": 18567, "ĠBEL": 36125, "ilian": 35373, "ĠHank": 22216, "Ġent": 3838, "Ġextinct": 31703, "ĠRik": 41636, "Ġsuffering": 3606, "iatus": 48822, "Ġhavoc": 19705, "isted": 15346, "lves": 30460, "Ġvolts": 46071, "Ġquar": 46124, "Ġprogramming": 8326, "Med": 21243, "offic": 27257, "esi": 20046, "Ġfew": 367, "Ġhearings": 9445, "ĠSUV": 8000, "Yep": 46236, "ĠMiliband": 41901, "ĠAbuse": 23827, "Work": 21461, "enum": 46284, "ĠAgility": 46337, "Ġ\".": 43809, "itary": 16669, "burn": 7554, "Ġunacceptable": 10538, "Ġelic": 33340, "ĠBelt": 10322, "ĠRouter": 46751, "Ġfreelance": 18150, "790": 34504, "Ġredress": 31816, "Ġante": 20761, "Ġcourageous": 24219, "Ġengagement": 4921, "Ġdisinfect": 35258, "eredith": 23178, "Ġrecre": 35244, "Ġspawn": 38176, "Secret": 42592, "Ġreperc": 47164, "Ġdwelling": 28576, "Ġguidance": 3824, "ĠTorn": 33790, "orical": 30340, "Ste": 21426, "ietal": 44584, "Assuming": 46826, "ablo": 42180, "Array": 48222, "ĠReply": 6672, "Ġnetted": 15825, "Ġawaits": 22512, "ĠRanking": 31563, "Ġla": 897, "ĠAppropri": 39960, "Ġadmission": 7988, "Ġ423": 38611, "Ġgrit": 24299, "BTC": 38614, "ĠSoda": 39115, "ĠMcKenzie": 18617, "lehem": 48248, "tif": 48609, "ĠCit": 7801, "arer": 21160, "ĠCal": 2912, "Ġasynchronous": 47713, "Ġconstellation": 36129, "Ġdogma": 43804, "Donald": 19195, "Ġsuspicion": 8551, "ifty": 22129, "wl": 42448, "Fa": 44663, "Sher": 31722, "idation": 32090, "leaders": 23240, "Ġabsorb": 15709, "president": 10443, "ĠCompared": 23570, "Ġgranite": 30196, "Ġcolleague": 9896, "ilege": 44210, "ĠVen": 10336, "WW": 20904, "ĠMoj": 31241, "Ġindependents": 28893, "Ark": 41441, "Ġ90": 1814, "Ġrash": 21563, "igel": 36547, "Ġsliding": 15599, "NY": 9873, "Ġfellowship": 27580, "Ġdesigner": 6004, "Ġmoniker": 30543, "umer": 26229, "ĠIncluded": 30411, "ĠTall": 12388, "vals": 21049, "ĠMission": 7750, "Ġdraped": 30307, "ĠGD": 22579, "PO": 14465, "Ġcooling": 13281, "Ġstocking": 28960, "1024": 47477, "Yeah": 14783, "uations": 10184, "Ġboxing": 9114, "auna": 25729, "Ġprograms": 1767, "disable": 48986, "Ġdove": 27764, "Ġincomp": 45059, "Ġyacht": 22413, "Ġtap": 5797, "ĠPieces": 41924, "ĠFloating": 40480, "Ġnutrients": 20012, "ě": 50135, "El": 9682, "Ġcursor": 45483, "Ġnovice": 32219, "lab": 31479, "ĠWhere": 4820, "ĠIsrael": 1870, "Ġseason": 191, "Ġalmost": 818, "Ġinflammation": 16000, "phant": 44254, "ĠStrike": 24044, "ĠRutgers": 19212, "SpaceEngineers": 50175, "Ġhesitant": 24668, "Ġboom": 8600, "ĠKumar": 6706, "ĠALSO": 9459, "ĠSik": 17209, "ĠSPACE": 44909, "azer": 14609, "Kin": 42638, "õ": 50097, "LCS": 34311, "esame": 27476, "ĠSupporting": 26515, "Ġrescued": 8262, "ĠHeroic": 47420, "ĠVolunteer": 19410, "ĠMyster": 43888, "Ġtimely": 10358, "Ġsouven": 30791, "ĠWere": 18258, "gent": 13907, "Ġinflic": 44616, "Ġcharges": 1103, "KY": 11490, "Ġrequirements": 3471, "atur": 8367, "ribution": 35719, "Age": 39006, "ĠManual": 35597, "Ġthicker": 33997, "Ġtraveler": 33489, "Ġfract": 38251, "ositories": 48746, "ĠRAD": 35831, "ĠInk": 28643, "Ġdestroying": 14340, "642": 36159, "Ġsac": 22636, "Ġreported": 431, "ãĢ": 48516, "ĠStephens": 13004, "Ġexpectancy": 26276, "Arm": 40414, "Ġforesee": 31437, "ĠDamon": 20429, "658": 36688, "Ġloving": 8520, "ĠTrip": 13734, "033": 40958, "sel": 5317, "ĠBomb": 14521, "andy": 10708, "ĠZip": 38277, "Ġink": 16019, "mented": 19601, "orient": 29458, "Ġostr": 35902, "bral": 44283, "ĠMcM": 11271, "Ġwest": 3072, "Ġstrengthened": 13813, "uta": 14325, "Ġdisasters": 12884, "Ġcocoa": 22348, "457": 34916, "retched": 47904, "ĠHorse": 14945, "Ġdistant": 13258, "ato": 3938, "iop": 28119, "021": 41656, "akis": 17622, "unk": 6435, "ĠBrook": 9062, "Ġrattled": 21602, "Ġbail": 4852, "ĠRs": 2144, "ãħĭãħĭ": 49865, "ĠSuperintendent": 10313, "Ġfemales": 16856, "ĠPersona": 46107, "Ġdiscourse": 19771, "Ġcortical": 47615, "ierra": 37511, "Ġproced": 31902, "Ġbaked": 17241, "ind": 2028, "Ġallows": 2386, "bus": 18924, "culus": 46283, "ĠFlor": 13219, "ĠLadies": 17560, "ĠRuk": 24542, "Therefore": 32730, "ĠNose": 39273, "Ġsmuggling": 17070, "ĠJunction": 23257, "Ġlandfill": 21289, "ĠJudaism": 34345, "Ġdisappointed": 5779, "Ġimmortality": 45075, "Ġsprinkled": 38073, "Ġhunted": 32602, "Weiss": 48069, "ĠLouise": 12886, "ipers": 33014, "affle": 15442, "Ġconsiderable": 9712, "Ġprospects": 5108, "ĠEmb": 6133, "Ġcriticize": 21500, "osta": 13334, "Ġnun": 20172, "Ġsidel": 44324, "Ġups": 12744, "Ġfuckin": 46922, "ĠPalestin": 49141, "Ġbooked": 7512, "ĠMaz": 15775, "Ġtold": 174, "Swe": 43957, "Ġrarity": 33984, "ĠSonny": 23202, "Ġcongress": 12442, "Ġfares": 18688, "oba": 19614, "Ġsage": 31235, "sic": 15335, "Ġ266": 37286, "ĠCG": 33354, "Ġbeach": 4105, "Ġantiqu": 33443, "Ġwo": 19958, "ĠBuch": 19443, "Ġnutrition": 10894, "Ġdivor": 35447, "ĠJesse": 10716, "ĠHood": 14604, "Ġterrit": 38064, "worked": 25765, "ĠCONTIN": 42886, "Ġdavidjl": 50152, "Ġinfancy": 34789, "Ġoak": 25033, "estern": 47723, "Ġfounder": 3787, "Ġcatching": 10205, "ĠWaves": 35928, "monitor": 38575, "Ġclam": 24045, "Favorite": 48236, "Ġbackyard": 12284, "Ġemphasizes": 27995, "ĠCollective": 25030, "addin": 35527, "ĠSkinner": 27192, "ĠAlam": 22223, "Ġconfigured": 36614, "Ġtying": 13024, "Ġfairly": 5342, "justice": 28244, "990": 27204, "Ġdis": 2982, "ĠMage": 28387, "Regardless": 38861, "ĠPhant": 41079, "Ġchalk": 23755, "ĠMartha": 15281, "Ġperiphery": 36605, "Ġdroid": 46235, "worthy": 17328, "Ġmatters": 3510, "eger": 44091, "ĠVegeta": 48135, "Ġemotion": 11926, "Ġpassports": 22631, "Ġ(@": 838, "Ġtie": 3318, "ĠNEC": 23194, "Ġshepherd": 35234, "Ġemphasized": 12843, "Rather": 35716, "ĠRus": 14762, "ĠAbbott": 11082, "Ġdehuman": 39454, "acqu": 21625, "Ġapplies": 11459, "gro": 15821, "ĠLyndon": 36070, "allel": 44682, "Come": 22817, "Ġshun": 23795, "Ġthemed": 22952, "ĠAudrey": 25478, "osh": 5212, "Ġflood": 5005, "Ġjuices": 30113, "imo": 11332, "Web": 27521, "Narr": 48683, "Ġimplies": 19659, "Ġdro": 13868, "ingly": 7790, "Ġgif": 32710, "ĠStarting": 11677, "Zone": 36004, "ĠAvatar": 41246, "ĠOld": 3470, "ĠINT": 30497, "Ġdirector": 736, "ĠDoodle": 44686, "enth": 28249, "Ġchild": 920, "Ġbeast": 22067, "Ġindu": 48452, "Ġ93": 8060, "ĠWouldn": 39269, "Ġaccept": 3264, "Edward": 45014, "restrial": 39169, "ķ": 15722, "ĠCub": 18385, "ĠElk": 25593, "mbuds": 48469, "Component": 48767, "esis": 25960, "ĠJade": 18518, "ĠJa": 9982, "Ġundercover": 17814, "Ġgrep": 48501, "just": 8987, "ING": 1862, "Ġreopen": 13490, "Ġappellate": 28500, "Ġanaly": 23815, "Ġcontraceptives": 41272, "Ġundefeated": 15088, "Ġlifeless": 37019, "airy": 34506, "sole": 37870, "iko": 9691, "Ġoffsets": 41471, "School": 26751, "Ġprovide": 694, "Ġcontaining": 8200, "ĠRonnie": 21127, "ĠDied": 38339, "ĠYourself": 35420, "Ġelabor": 25499, "Ġconceive": 36364, "ĠRochester": 14841, "zech": 40516, "vertis": 24673, "Ġcannabinoids": 43488, "Ġwritings": 31757, "Ġdefinitive": 17756, "Ġpronounced": 9015, "Ġprolong": 27514, "Ġenjoy": 2254, "Ġ91": 8301, "Ġbrain": 2900, "Ġconnected": 3665, "Ws": 41951, "Ġpatron": 18528, "iment": 8913, "gency": 29377, "Ġways": 1319, "Ġcraw": 36526, "lated": 32914, "Davis": 36787, "Ġpaint": 6345, "Ġmidfielder": 5732, "Ġprinter": 24079, "ĠSOME": 41812, "ĠImmediately": 29261, "Ġcellphone": 13605, "ĠMonica": 12811, "Ġcannons": 40858, "ardo": 6782, "Ġcontacting": 20896, "align": 44022, "Ġnights": 7011, "Ġcervical": 29851, "é¾įåĸļå£«": 50187, "Ġattribute": 21643, "ĠTax": 6394, "odic": 30054, "Ġ318": 37207, "ä¸Ĭ": 48827, "ĠSK": 14795, "ĠCarlton": 25192, "ĠPrest": 27841, "ĠRip": 20337, "HY": 32288, "ied": 2550, "ĠSoros": 21093, "ser": 12778, "Ġwants": 1072, "Ġrigs": 19880, "widget": 48972, "Ġtallied": 20195, "Ġpellets": 36529, "Ġshuffle": 34321, "ĠSummer": 6524, "ĠInstruments": 27498, "Ġcloset": 16198, "Ġcopy": 5375, "ĠRecommended": 16172, "Economic": 41376, "Ġrev": 6910, "ĠMind": 9201, "Ġcommercially": 23245, "Ġost": 29122, "ogly": 39218, "Ġuptick": 20646, "ĠDemons": 36854, "ãģ§": 48190, "ĠElection": 7713, "obb": 25795, "renched": 30388, "interesting": 42746, "Ġexhausted": 17067, "ĠKazakhstan": 17983, "Scene": 47330, "ONG": 9672, "ĠInferno": 45157, "Ġdaughter": 1354, "Ġhasn": 2282, "House": 18691, "ĠApost": 40201, "Ġbegun": 5812, "Ġprincipals": 26047, "Ġrebel": 8829, "Ġ126": 18461, "é¾į": 49873, "ĠRouge": 14941, "Ġsignaled": 18094, "Ġremedy": 20687, "Ġ1957": 23778, "ĠSafari": 28798, "Ġexperiences": 3734, "................................": 46082, "Ġendorsements": 29539, "Ġsubject": 2087, "Ġobjects": 8720, "ailable": 38484, "Ġbabys": 30976, "ling": 1527, "ĠBryan": 7573, "ĠMaps": 21089, "ĠCustoms": 10465, "Ġlabeling": 27963, "omorphic": 45758, "Ġracer": 28782, "Ġevacuation": 9750, "illus": 43335, "ripp": 22872, "Ġaltru": 41088, "ĠSidd": 16216, "Nearly": 35346, "Ġimprisonment": 14804, "ĠDriving": 19181, "ĠKnown": 21575, "ĠAndrea": 9929, "ode": 4636, "Ġbaptism": 40922, "ĠBangl": 33371, "ĠDaddy": 25455, "Ġemployees": 1321, "significant": 18880, "ĠTags": 36518, "Ġsofter": 21052, "Ġcrucifix": 42031, "Ġcommer": 47069, "ĠMeanwhile": 2276, "Ġsubmer": 45110, "ĠBetween": 10414, "plin": 28291, "aed": 20380, "593": 39785, "icked": 14851, "Ġensured": 14953, "Ġsneaking": 36596, "Ġ',": 49201, "REM": 41548, "Ġtranscripts": 20382, "Sample": 47241, "ĠTunnel": 31069, "æķ": 48607, "Ġclumsy": 38734, "Ġpollution": 6631, "Ġoverhe": 27169, "Ġexecutions": 23729, "APTER": 47532, "Ġfactors": 2433, "oliberal": 47520, "Ġspace": 980, "Ġglitch": 31482, "Ġsend": 2142, "Ġjustified": 14267, "bench": 31240, "Ġnested": 46902, "handled": 42536, "Ġdiscriminated": 32214, "ĠCenter": 824, "Ġnutrient": 30417, "ĠFischer": 20942, "Ġblunt": 18720, "Ġenters": 13328, "Ġwonder": 5170, "ĠAssuming": 29175, "Ġt": 326, "He": 894, "ĠRosenstein": 16345, "tw": 17137, "476": 33981, "ĠEducational": 24720, "33": 3103, "Lu": 25370, "Internal": 47666, "aghan": 22185, "milo": 49427, "Scope": 45190, "Ġnoisy": 28269, "araoh": 46726, "Ġstale": 37367, "ĠNDP": 13194, "chio": 27680, "Ġsparing": 34866, "Ġdetained": 5624, "Ġpassage": 9078, "Ġproof": 6461, "ĠSD": 12723, "Inv": 42782, "Putting": 43595, "ĠSears": 13285, "ÙĲ": 48112, "694": 39688, "Sensor": 48733, "ĠVinyl": 40236, "Ġcaptains": 25043, "Ġsovere": 48648, "Ġconceivable": 40052, "Ġherald": 23960, "imar": 34599, "Ġmotivations": 30337, "Ġcelebration": 4821, "ideshow": 17946, "ĠTam": 7736, "Ġval": 7398, "Ġevolve": 14842, "pair": 44170, "Self": 39762, "Ġassured": 7189, "Ġturnovers": 10476, "Ġlife": 301, "ĠTorrent": 43451, "ĠSearch": 12180, "ĠSingle": 15773, "adies": 40979, "Ġtravels": 12524, "rique": 25821, "Ġfart": 36762, "ĠTues": 20423, "ĠFIFA": 6759, "Ġinterpret": 18107, "Ġbackups": 32163, "three": 9983, "want": 32835, "winning": 5189, "fl": 4825, "Ġcoun": 30335, "OULD": 33835, "ĠIndonesia": 5722, "ĠLocal": 4004, "ĠEstimates": 33621, "Ġcoaching": 4880, "Wh": 14447, "ĠIzzy": 41431, "ĠCountry": 5093, "mm": 5471, "ythm": 43821, "Ġshadowy": 38482, "Ġflag": 3794, "Ġusing": 634, "Ġsoup": 14532, "ãĤ¬": 49758, "Battery": 47795, "ĠArchive": 29389, "Ġrestored": 9530, "Ġpaired": 11153, "Ġtourist": 8376, "Ġsteroid": 37614, "516": 38960, "Je": 35805, "kies": 16731, "`.": 49024, "Ġbreast": 6181, "Ġretrospect": 32897, "Ġaesthetics": 31189, "Ġreimbursement": 22507, "Standard": 35167, "Ġpresented": 2633, "Ġcurrencies": 7607, "ĠIMF": 10458, "Ġ502": 39179, "Ġinc": 5853, "ubuntu": 48099, "Ġlumber": 24829, "Ġanimals": 3122, "Ġglimpse": 11986, "ĠDocker": 42221, "VIS": 23111, "lessness": 16337, "Ġcov": 47268, "Ġwhit": 21247, "Ġts": 42270, "Ġexempted": 31882, "tainment": 43427, "Ġgunned": 25907, "ĠMercedes": 7016, "ĠHav": 22989, "ĠKeystone": 21708, "flag": 30160, "Ġ229": 26972, "Ġcryptocurrencies": 13631, "ordable": 31760, "Ġpress": 1228, "Mic": 31371, "ĠYorkshire": 9661, "581": 39263, "Ġst": 1690, "ĠNeb": 23197, "ĠSpo": 32403, "ĠFinding": 21470, "reverse": 45553, "regor": 49218, "Ġdespair": 21508, "ÃŃa": 5272, "Ġpains": 19585, "ĠSaint": 6130, "Ġsynthes": 33689, "orough": 33123, "VALUE": 49313, "aliation": 47017, "ĠElements": 40322, "Ġleth": 35370, "683": 39062, "Ġleaving": 1618, "++++++++": 49557, "Ġopioids": 16202, "ĠBalkans": 34610, "assemb": 45516, "ingham": 20117, "Ġmethyl": 39902, "Ġprotested": 17278, "ĠArabia": 3466, "ĠUltron": 45854, "Ġcorporation": 12772, "ĠHannah": 11029, "Ġtransforms": 33622, "ĠSkill": 37456, "stage": 10850, "benefit": 38010, "ety": 12637, "ĠMcCorm": 18945, "ĠBlackhawks": 18875, "bidden": 47747, "ara": 1742, "Ġrelies": 12438, "Ġretract": 31914, "pret": 42354, "Ġwithhold": 26691, "ĠNorthwestern": 14776, "Ġwaving": 20615, "ĠVeteran": 18545, "$.": 48292, "Ġinflammatory": 23785, "Ġdmg": 49576, "itton": 23121, "Ġpocket": 7524, "MJ": 41062, "Ġbru": 29435, "Ġbye": 15687, "lda": 34054, "Ġdemanding": 5783, "series": 22760, "Ġdors": 48779, "ĠRevenue": 5833, "Ġhurried": 35100, "Ġreflecting": 10811, "Ġmanufacturing": 3021, "803": 39440, "knowledge": 44228, "2010": 24789, "ĠRural": 16058, "ork": 9657, "Ġleagues": 10637, "ĠGale": 26454, "Ġsmokes": 40383, "anski": 24345, "Ġhalt": 8463, "earances": 45715, "ĠForth": 41233, "Ġcollegiate": 25161, "imeters": 38983, "ils": 5290, "Ġdioxide": 15746, "adobe": 48952, "Ġpornography": 15570, "Val": 20320, "tax": 11755, "Ġtable": 2103, "Def": 17425, "erning": 37835, "ettel": 14282, "Ġnewborn": 14354, "aukee": 45196, "ĠSki": 21175, "growth": 14596, "Ġsimplest": 31625, "ĠÂłĠÂłĠÂłĠÂł": 50150, "ĠAwoken": 49611, "Ġrelinqu": 24637, "Led": 40794, "arp": 11230, "Ġvibration": 35911, "resent": 34013, "Ġskepticism": 22222, "WHERE": 46298, "Ġdestroy": 8439, "Ġ1978": 14428, "Ġharmless": 27243, "ĠIndra": 42812, "Ġplaybook": 27190, "ĠPsal": 42321, "tto": 26187, "olation": 35626, "Bron": 35096, "Ġconcrete": 6369, "Ġunorthodox": 35956, "leep": 45841, "Ġmills": 19917, "ĠGlobe": 10249, "utherford": 48604, "Ġrap": 11619, "Ġos": 11988, "ackle": 37948, "ĠEnhancement": 42764, "ways": 5924, "Ġthesis": 24149, "Ġmalfunction": 24189, "Ġturtle": 28522, "Ġsabotage": 26664, "onz": 18085, "ĠSpending": 29128, "asons": 32781, "Ġinventive": 34906, "Ġassaulted": 8057, "Ġcontrasted": 37630, "Ġcomplain": 11316, "ĠFree": 3130, "translation": 48235, "ĠSUB": 25272, "xxxx": 47596, "ĠAlone": 34171, "Ġforecast": 1914, "çĶ°": 49691, "ĠHilbert": 47260, "ĠMit": 12663, "Ġaway": 409, "ĠTest": 4500, "ouk": 27486, "ĠPP": 18390, "ĠNVIDIA": 31146, "Thirty": 38011, "ĠTripoli": 25679, "ĠXT": 41193, "user": 12105, "Ġdictated": 31267, "devices": 44326, "ĠDeadline": 22399, "Ġpressed": 11224, "Ġemailed": 13892, "functional": 38922, "ĠOrlando": 5854, "Ġsnag": 29650, "itability": 28567, "ĠPole": 24710, "asu": 30007, "ĠHansen": 14942, "ĠCree": 30084, "684": 37821, "Ġtorso": 28762, "ĠSTE": 26538, "paced": 20764, "fleet": 42952, "ĠContemporary": 28729, "Ġmission": 2511, "dress": 36220, "ĠPrairie": 17019, "Ġpowerless": 33128, "Ġnat": 23577, "services": 28023, "ills": 5622, "fair": 13500, "OSH": 38336, "ANA": 14629, "ĠKir": 11596, "ĠJohnny": 8781, "ĠAccessories": 40356, "bians": 46703, "ĠAmbro": 47043, "Ġhonored": 7809, "Ġtheme": 4782, "ĠMeier": 38008, "580": 31663, "Ġsprink": 24026, "Ġartifact": 43260, "ĠBass": 12554, "Ġ1933": 26873, "ahime": 49966, "ĠKali": 40843, "ĠCous": 40934, "Adding": 45118, "Ġ300": 2993, "Ġmurder": 1900, "rypted": 47333, "ĠInvestigative": 28956, "ĠLikewise": 21371, "ĠDrop": 21603, "></": 49526, "585": 34921, "Ġgoaltender": 18950, "ĠChaff": 12268, "ĠJunior": 6843, "ont": 2533, "Ġrocks": 10889, "ĠAdvisor": 13050, "Rap": 39310, "Abyss": 49478, "Â²": 40632, "Ġmanufacture": 15030, "berus": 49496, "ĠLast": 1426, "ĠMend": 8404, "signed": 29328, "although": 24648, "Ġprodu": 21411, "\"><": 49995, "alpha": 29135, "ĠSilk": 26537, "'\"": 24464, "ĠSelected": 38449, "Ġspilling": 31537, "Ġsaved": 5305, "Ġsurn": 44183, "Nobody": 18975, "267": 28497, "422": 37319, "ESA": 32416, "ĠGum": 32778, "Ġtrailer": 5611, "Ġprototyp": 40004, "serial": 46456, "Ġchau": 35119, "Ġparad": 42388, "Ġmaid": 29754, "kok": 42915, "Enjoy": 44049, "Ġblatant": 26248, "ĠSau": 18122, "ĠVie": 22508, "Ġuncontrolled": 38411, "Leon": 34792, "ĠBiological": 33271, "ĠKens": 15485, "locks": 37536, "Ġnamely": 13953, "eston": 19927, "ĠRAID": 44213, "Ġbrutality": 20509, "Ġbig": 380, "Ġcontinuing": 3348, "Ġcarried": 2584, "Ġacceleration": 19308, "olutions": 30445, "Ġreflective": 22213, "ĠHerm": 32862, "Ġnausea": 27214, "nery": 25736, "112": 17729, "Ġagendas": 30490, "Ġstaffer": 19967, "iasco": 47337, "oglu": 24886, "Ġdile": 41143, "ĠPEOPLE": 16789, "Ġshadows": 21841, "Please": 6715, "lus": 23761, "analy": 31111, "1979": 43768, "zynski": 28471, "Normal": 45647, "Ġcorpses": 36650, "588": 38318, "xt": 11483, "Ġunwelcome": 33552, "Ġillegal": 2439, "Ġromantic": 8728, "udos": 30729, "Ġscenes": 5422, "ĠPosted": 16171, "Ġinternship": 27652, "endi": 19724, "Enhanced": 47349, "apon": 36951, "occup": 32283, "Ġamput": 29327, "ĠHartford": 13640, "ĠKM": 32046, "ĠSeventh": 26734, "ĠEVE": 46748, "Ġparadigm": 28323, "ĠCompar": 20492, "ĠBrands": 11885, "irlwind": 47905, "Ġcared": 15732, "ĠEXT": 37491, "ĠRita": 18431, "ĠZika": 19924, "ilipp": 33465, "Ġarousal": 45631, "iHUD": 50076, "ĠPhD": 15221, "Project": 33347, "Ġcompartment": 29040, "Ġrides": 9668, "Ġmanipulated": 24747, ".......": 44629, "abetes": 42603, "Ġsom": 16487, "ulum": 28712, "ĠCharisma": 46416, "orean": 24452, "Nitrome": 50070, "Ġcensored": 39692, "Ġdownloaded": 20957, "Ay": 41585, "Ġmoments": 3423, "ĠHopkins": 11905, "Ġlicence": 10362, "ĠStatement": 19356, "Ġ465": 40525, "ĠInstitutes": 27260, "ĠYOUR": 21688, "meier": 29174, "ĠDota": 46042, "Ġmuseum": 5707, "Ġallowed": 1220, "line": 1902, "doing": 30012, "AFTA": 39796, "Ġcoil": 38843, "Marginal": 49039, "Ġlegends": 21148, "Learning": 42489, "ĠDare": 33974, "rog": 10191, "peed": 39640, "Ġdischarge": 15462, "Ġviews": 2728, "ademic": 41551, "ĠClaw": 44121, "ĠJustice": 1659, "Ġambitions": 12294, ",\"": 60, "Ġounce": 10671, "ĠMelody": 38148, "Ġtact": 27844, "alg": 31316, "ĠVital": 23911, "Appearances": 49647, "ĠNikki": 15141, "massive": 31065, "Ġlift": 5258, "hp": 24548, "ä": 48753, "ĠMaryland": 4788, "ĠAW": 18463, "ĠVince": 14453, "Ġnap": 16159, "Ġriot": 13069, "announced": 29096, "oids": 22926, "Ġlistener": 30443, "Ġmostly": 2260, "Roll": 35436, "Ġ182": 25669, "Ġdecom": 24165, "../": 49445, "Amount": 48302, "ĠCost": 7860, "enne": 18504, "ĠCET": 39034, "åī": 49075, "Ġboosting": 11606, "Repl": 47493, "ĠNicol": 24947, "Ġgentlemen": 22629, "Ġintimately": 39193, "Ġslut": 44046, "Ġpra": 21950, "Ġchanting": 21122, "quality": 8634, "worker": 23589, "resolution": 29646, "iliation": 26045, "Ġwrapping": 20325, "Ġaccidentally": 13636, "shadow": 33717, "Ġsoften": 28679, "388": 34067, "bay": 18707, "Ġgave": 851, "ĠNGOs": 22986, "Ġlawmakers": 2648, "ieties": 29590, "ynt": 45122, "Ġshell": 10785, "Ġ());": 49953, "Ġvinyl": 22278, "TD": 22615, "ennett": 35599, "Ġautos": 32226, "ĠCPC": 37389, "DI": 10063, "ĠHere": 1398, "ĠInjury": 32332, "Ġframing": 27307, "Ġ223": 29355, "ĠHassan": 11551, "ĠCustom": 16583, "Ġrank": 7938, "Ġmerging": 29002, "Ġstaying": 4959, "ersed": 40444, "ĠFTC": 25186, "Ġapprehend": 35815, "Cub": 43655, "792": 39739, "Ġreferrals": 29439, "Ġpeaks": 21414, "Ġchopped": 16639, "ricia": 45127, "ĠProcedures": 44232, "ĠBM": 25289, "ĠFeet": 38452, "Ġoccupational": 30949, "Ġfighter": 7251, "Allen": 32291, "ĠPeninsula": 11069, "ĠBelgium": 7320, "Understanding": 44188, "ĠZuckerberg": 10741, "ĠZur": 34037, "ĠSongs": 28468, "Er": 28012, "shown": 44270, "Ġpestic": 49383, "uce": 15431, "Ġnavy": 13504, "Ġvit": 14306, "Screenshot": 45296, "ĠNotification": 43764, "Ġcheating": 14153, "Ġtbsp": 31753, "ĠKl": 7507, "Ġcontacted": 5590, "cookie": 47884, "any": 3785, "Ġpainting": 7674, "ĠBroadway": 7099, "Ġsuggested": 2528, "Ever": 27172, "ĠRisk": 12366, "ĠFlavoring": 49547, "Ġwho": 54, "Ġsubmit": 6471, "ĠStock": 3412, "Greg": 25302, "Ġradius": 29943, "Ġtriangles": 45422, "ĠNept": 47799, "ĠVictory": 15908, "picked": 29827, "dragon": 46933, "Ġmode": 5745, "ĠKung": 39592, "coll": 27454, "Ġjugg": 23840, "218": 30487, "uner": 25131, "Ġjargon": 40163, "Ġglued": 34947, "Ġcondem": 49362, "Ġfanbase": 36673, "ĠPrecision": 29484, "Doctors": 42847, "Ġarchetype": 46186, "elsen": 35573, "Ġspecific": 2167, "ĠWikileaks": 38629, "Ġignorance": 22092, "Ġsouls": 23810, "bial": 45744, "*****": 40255, "ĠMoines": 21840, "ĠNazis": 20751, "ĠNaw": 11796, "û": 50103, "Considering": 41562, "Ġsym": 22850, "Ġspice": 22157, "Ġsecretion": 46886, "ĠChampionship": 3261, "Ġpublished": 1027, "ĠWilde": 33941, "ĠEdge": 12591, "ĠLaboratory": 17815, "Ġbreathing": 9589, "ĠLilith": 48023, "ĠPHI": 45006, "Ġembell": 28009, "antasy": 40650, "isively": 46504, "Ġglitter": 19053, "Ġwastewater": 23399, "IC": 2371, "Ġadolesc": 48435, "ĠFans": 8846, "Ġâĸº": 26074, "Ġnit": 23737, "Ġcontempor": 44005, "inson": 9554, "Ġmeal": 5820, "ophobic": 31209, "ĠRage": 39316, "ĠGloss": 43028, "Fra": 45558, "259": 29961, "Â¯Â¯": 50051, "Ġmatrix": 36173, "Ġleaders": 917, "watching": 34464, "Ġfetus": 35502, "ovies": 40527, "planned": 23648, "Ġreef": 28350, "Ġunfocused": 47306, "æĢ": 48483, "ĠFormer": 3531, "Ġmalnutrition": 29638, "ĠCanterbury": 26320, "Ġdecoding": 46133, "yond": 32565, "gest": 10403, "ĠWoman": 9117, "Ġreset": 18821, "ĠPS": 4868, "Ġsulph": 32494, "Ġaudio": 6086, "Where": 13841, "522": 38348, "Ġcollapsed": 7793, "ploma": 41891, ":/": 44408, "Ġscrib": 39946, "abwe": 46938, "Ġbits": 15239, "á": 1376, "ĠDF": 36625, "Ġwont": 40067, "810": 35269, "Ġpneum": 45001, "ĠNanto": 49891, "pack": 12486, "ĠAfghanistan": 4035, "Ġathlete": 8340, "my": 4783, "Ø¹": 41688, "ĠMonte": 10138, "ucer": 43886, "ursor": 47853, "Ġwish": 2813, "Ġpref": 33284, "++++++++++++++++": 49258, "about": 9006, "ĠThom": 22608, "Ġlogistical": 25994, "ench": 24071, "ĠAgainst": 9174, "Ġapostle": 46511, "RET": 36995, "Ġenthusiastically": 33204, "umps": 11768, "ĠKenneth": 12394, "ĠViv": 12701, "Ġrapist": 33226, "ĠCBS": 3710, "Ġoste": 30311, "Ġsober": 17333, "ĠSpur": 29787, "sm": 9426, "ĠAkin": 23456, "Ġhelium": 41365, "orno": 27211, "Ġsafeguards": 25563, "esity": 46461, "References": 49379, "ILY": 24519, "VERTISEMENT": 11664, "Ġpans": 31592, "AH": 15334, "Ġreally": 269, "ĠEy": 15889, "igning": 35780, "ĠSSD": 25250, "metal": 32961, "monary": 43462, "orea": 33594, "ĠNil": 30060, "Ġaides": 10049, "Ġbrav": 35977, "ĠRBI": 4515, "However": 10462, "ĠMan": 1554, "ĠSpray": 37929, "Ġpose": 7277, "Ġgarment": 25916, "isphere": 48276, "Ġensemble": 12547, "awaru": 49816, "Ġallev": 32216, "Ġapply": 3253, "Ġskate": 12800, "Ġcontrasts": 33569, "dict": 25867, "ĠROCK": 30448, "berry": 8132, "Ġretreat": 11298, "Ġni": 10265, "ĠReason": 31613, "Ġglobe": 7183, "oine": 21012, "domain": 46400, "getting": 31315, "Ġoperations": 1414, "ĠJas": 15504, "Ġdisclosing": 26344, "orship": 11887, "Ġcontacts": 9872, "ĠFiona": 23905, "Ġfullback": 24907, "Along": 40066, "Ġgeop": 41140, "urther": 39212, "ection": 20970, "endants": 35845, "fusc": 48996, "odium": 41310, "ĠWhenever": 24100, "Ġrestrictions": 5165, "Ġheavily": 4008, "pared": 33160, "ĠCul": 15270, "ĠBEN": 32849, "ogging": 24096, "Ġsustainable": 5068, "ĠMarshal": 23901, "Ġkeys": 10654, "vati": 45216, "ĠWILL": 18342, "ĠCaleb": 18824, "Ġchief": 834, "ĠMON": 20062, "ĠRhod": 35913, "ipher": 38914, "packed": 21330, "icio": 15025, "Ġsupper": 36821, "ĠAme": 28516, "Ġincapable": 30256, "Ġequation": 19587, "Ġinformed": 3978, "ĠFTP": 46123, "Ġ1986": 11265, "Ġfriendships": 22942, "Ġstockp": 21773, "Ġlawsuit": 2672, "Ġminers": 12916, "ĠPE": 12238, "ĠCelebrity": 14625, "Ġraised": 1179, "Ġbecome": 555, "ĠTRE": 35171, "Ġvictimized": 33250, "Ġproduce": 2592, "events": 28615, "ĠSamsung": 3797, "am": 424, "ĠGets": 32810, "Ġprimal": 43243, "uchi": 21777, "ĠCursed": 45504, "ĠShe": 264, "Ġanalysis": 1966, "Ġfruition": 25789, "Fill": 46448, "Ġhindsight": 30690, "Ġhops": 36269, "ĠTsukuyomi": 50029, "Ġï": 33549, "sama": 48883, "Ġfundament": 46352, "ow": 1722, "Ġupdates": 3496, "ĠAless": 23468, "Ġcontributor": 12390, "ĠWald": 15371, "ĠBieber": 16370, "Ġslit": 34915, "Washington": 22247, "bright": 23471, "ĠProsecutor": 13992, "ĠGrill": 15697, "Ġspeeding": 13494, "\":\"\",\"": 44374, "ĠTyph": 46518, "ĠAh": 7746, "chance": 32207, "Ĥ¬": 49171, "Big": 12583, "Ale": 37010, "requent": 40985, "Ġuncont": 36674, "Thank": 13987, "ĠSn": 7500, "private": 22891, "umble": 15373, ".........": 45912, "Ġapplied": 5049, "inc": 3976, "Ġfees": 3154, "ĠGeForce": 36988, "Amazon": 25146, "wik": 39224, "one": 1264, "Ġpsychosis": 41116, "ITY": 8662, "ĠMing": 24490, "Sav": 36138, "Ġintertw": 45552, "ĠKap": 7131, "er": 254, "Ġstood": 3359, "Ġnostalgia": 22531, "ĠChou": 31530, "UGH": 38389, "Ġwrong": 1593, "Ġ==": 45994, "emonium": 48144, "ORT": 12154, "Ġdefense": 1443, "Ġprint": 5780, "ĠSabb": 42365, "zee": 38702, "ĠPil": 13601, "Ġshall": 5658, "Unit": 43980, "ĠNoah": 10629, "Ġroaming": 25783, "Ġhost": 1482, "Ġvigil": 17787, "ãĥ": 48909, "ĠMosque": 31422, "otte": 17034, "hur": 14898, "ĠRx": 44681, "ĠHin": 27506, "Ġends": 3587, "LGBT": 35021, "ĠGideon": 37975, "Ġ17": 601, "ĠSkies": 39191, "Ġunsett": 30933, "Ġsoils": 35316, "Ġ--------------------": 47539, "Ġportrayed": 15266, "ĠWORLD": 32697, "/-": 40398, "Ġsurrog": 34756, "Ġauthentic": 12757, "cludes": 44313, "Ġflashy": 31005, "ĠPreviously": 14821, "ECD": 43663, "eking": 25558, "Ġsells": 7683, "roximately": 46401, "ĠTimbers": 34303, "ndra": 36470, "Ġvalue": 923, "incarn": 48910, "ĠSector": 15816, "Ġcounties": 5642, "ĠFROM": 11974, "ĠDwight": 20392, "Ġrented": 16425, "aunts": 33774, "Ġinterested": 2509, "ĠTalking": 14920, "ĠTime": 3421, "Ġclaw": 22047, "imir": 32850, "ĠPersonal": 13129, "ĠMemories": 38628, "Ġarrive": 5240, "ĠWins": 19460, "tile": 47693, "ĠFellow": 16728, "ĠConstruction": 8911, "umbling": 16250, "Ġstares": 40782, "lein": 22593, "account": 36617, "Ġofficer": 1036, "Ġhairst": 25124, "HAHAHAHA": 48109, "Ġsto": 20572, "spe": 18462, "Club": 17875, "endish": 39460, "Ġlearned": 2435, "ĠAwareness": 23127, "!": 328, "potion": 49769, "Ġembryos": 32293, "Ġopenly": 9142, "Ġhref": 48225, "abit": 30820, "thought": 26086, "ĠPixar": 32000, "Ġcyn": 40240, "×¨": 47581, "ĠSwarm": 45148, "ĠDmit": 38943, "ĠJenner": 10281, "Ġaccountability": 9563, "Ġvinegar": 25271, "ourn": 8371, "kefeller": 49158, "ĠTwins": 12759, "Ġneutral": 7974, "izophren": 47325, "tex": 25401, "Ġpractition": 50009, "import": 41975, "ĠWhat": 653, "::::": 49710, "Ġsusceptibility": 44262, "secret": 19301, "inding": 24088, "ĠGuatemala": 17088, "Ġshockingly": 36804, "child": 14069, "hill": 9583, "ĠStats": 29232, "Ġâĵĺ": 50056, "Ġdiscontinued": 27251, "ĠFlore": 29433, "Ġ448": 42482, "ĠBrother": 13233, "Year": 22004, "Ġplanted": 13136, "ĠSty": 27894, "ĠHomeland": 9777, "Foreign": 37221, "ĠFur": 20376, "ĠThy": 29039, "ĠEnchant": 47372, "Ġdownt": 29407, "ĠGDDR": 46299, "opped": 35575, "ĠTravis": 8308, "Ġunless": 3867, "Ġdollars": 1932, "ĠThrough": 6278, "Ġpsychologist": 19902, "Ġsounds": 4428, "stores": 33477, "Ġremoval": 7129, "JV": 43117, "--------------------------------": 46939, "Ġgroin": 20671, "spir": 36734, "strip": 34216, "ĠMarkus": 29209, "ĠguiActiveUn": 50162, "Ġalumni": 16132, "ummer": 22539, "Sweet": 35942, "ĠNevertheless": 12888, "ĠAnd": 178, "silver": 40706, "ç¥ŀ": 49684, "anya": 12837, "Ġnegatively": 15708, "11": 1225, "Ġgrab": 6895, "Ġballpark": 25287, "Ġtroubled": 9895, "Ġheritage": 7788, "Ġmerger": 7394, "aza": 11868, "Earth": 34526, "ĠMercury": 15933, "nc": 11326, "Ġlaun": 48841, "ĠSantana": 23044, "ĠIron": 9940, "552": 35544, "Ġkidn": 24781, "Ġtread": 24424, "Ġhoused": 15740, "Ġvote": 900, "fold": 12851, "Ġheadquarters": 4351, "/": 73, "ĠPetition": 40505, "ĠTracker": 35368, "Ġtrees": 3980, "Ġmultiplier": 42700, "Ġevacuated": 9593, "Ġstable": 4375, "Ġsar": 31119, "Ġwrongdoing": 10976, "Ġslices": 23873, "Prep": 44165, "Ġimprisoned": 19537, "ury": 6801, "ĠAk": 3773, "Ġkickoff": 15806, "ĠShin": 15600, "Ġtreatments": 8289, "ĠCompare": 35585, "Ġpolish": 27931, "ĠPra": 17644, "Ġdetectives": 10412, "utton": 18589, "Ã¦": 30422, "Ġ157": 26289, "avier": 37041, "Ġpenchant": 28914, "ĠSnake": 35344, "Ġawards": 4188, "Ġdemonstrators": 14553, "Tal": 36812, "double": 14582, "ASE": 24199, "ĠReach": 16054, "Fest": 27170, "ĠEps": 39414, "ĠHaw": 10034, "ĠDollars": 37702, "¿½": 49916, "Ġiterations": 37922, "Ġhyper": 8944, "ĠServe": 30494, "WER": 45117, "Ġamendment": 8322, "Ġallowing": 2455, "Ġeventually": 2140, "ĠBooks": 16206, "Ġprofit": 1963, "usalem": 44651, "Ġjournalistic": 33999, "PM": 5683, "aily": 14671, "aren": 9475, "Recommend": 48758, "Pen": 32884, "Ġdiscovering": 18152, "Ġradicals": 35842, "ĠMcGregor": 9448, "idden": 41686, "ĠHDD": 44139, "Ġbi": 4003, "Ġmarg": 31417, "Ġcocaine": 9890, "Ġsports": 1612, "ĠIter": 47476, "ĠMPG": 46365, "ĠAngry": 32420, "Ġecology": 35112, "Ġ______": 47259, "Ġwreckage": 22520, "Ġnotation": 46885, "Ġcommunism": 35754, "ĠHM": 23770, "sc": 3866, "Ġinspir": 35539, "Ġjaws": 38332, "Ġdeeper": 6635, "Ġfrankly": 13542, "ĠOrient": 29540, "ĠLocked": 45915, "Ġ:": 4832, "Ġvia": 1241, "Ġflowering": 39209, "Ġ403": 35611, "ĠFI": 20027, "Ġfav": 23651, "Ġmicrobi": 39998, "Ġalloc": 42793, "Ġlucid": 44876, "Ġhours": 722, "Ġknocking": 13682, "Ġfranchises": 18154, "ĠConfig": 46475, "ĠAure": 35951, "weeney": 45249, "Ġmodification": 29685, "ATA": 25912, "ĠTeach": 38214, "Weight": 42158, "Ġphysicists": 41739, "Ġhosted": 4457, "Ġvert": 33566, "Ġcontact": 1511, "spread": 41205, "Gre": 39845, "Ġcrisis": 1486, "Ġmortals": 45387, "ems": 17752, "orig": 34188, "Ġgate": 8751, "opsy": 33716, "Ġ330": 21006, "Ġsip": 19998, "llo": 9905, "ĠCoin": 17203, "Ġhopeless": 24418, "Ġmicrophones": 35532, "ternally": 41076, "ĠSmall": 7090, "sylv": 44448, "Nothing": 19847, "Main": 31359, "ĠThunderbolt": 40072, "Ġlucrative": 11874, "Ġinfographic": 42745, "ĠUrug": 40359, "Ġcomputing": 11730, "ĠAnger": 39013, "Ġseparatist": 21324, "Ġmultif": 26323, "ĠPlane": 42071, "Veter": 40151, "Ġillustrious": 32005, "Ġembodies": 33434, "Ġtar": 20318, "Ġhesitated": 40591, "asketball": 45126, "reements": 39510, "Ġtelescope": 27608, "Ġdose": 12234, "aryl": 45456, "ĠDeputy": 4269, "Ġhol": 18701, "Layout": 49415, "ĠHover": 45857, "toe": 26383, "ĠAGA": 32114, "Vis": 27654, "ĠWid": 19648, "ach": 1488, "rian": 10713, "Crew": 37974, "ombs": 33726, "Ġinspect": 18973, "ario": 7718, "Ġdizz": 24719, "ĠOperations": 10919, "Ġhardness": 46743, "1982": 44133, "Ġprecious": 9761, "ĠPhelps": 23217, "ĠTsuk": 42427, "Ġduration": 13428, "ĠAriel": 25586, "ĠMB": 17025, "Ġtasted": 29143, "David": 8773, "ĠCorinth": 42035, "Who": 12375, "ĠIlluminati": 46667, "Ġvolunteer": 5968, "ĠKane": 8281, "ido": 6005, "ĠEqual": 25235, "ĠShort": 7787, "usra": 38360, "Ġtemporarily": 8059, "807": 38633, "Ġinstitute": 14619, "ors": 994, "Ġpotency": 39439, "ĠInvestig": 34850, "ĠCavaliers": 9207, "Ġ9000": 43420, "Ġvitamins": 26656, "ali": 3644, "409": 34295, "Uh": 42903, "/)": 43521, "Ġaudiences": 7768, "rawdownload": 50173, "Ġtowns": 6815, "ility": 13005, "Court": 37349, "Kal": 32604, "Fla": 36150, "Ġsnippet": 42772, "Ġoutlines": 23845, "Ġnominal": 26255, "ĠAPR": 30644, "lesi": 46263, "Ġdisappear": 14529, "ĠJets": 6261, "Ġlav": 24251, "ĠWitness": 25772, "Ġmissed": 2039, "Side": 42530, "anova": 18980, "Ġsuch": 215, "ĠCroatian": 27248, "rising": 37592, "ĠWarriors": 4223, "ĠNEVER": 37603, "Nusra": 42935, "ĠBash": 13117, "rared": 40803, "ĠDog": 8563, "ĠSkills": 25855, "Ġpresumption": 37163, "ĠOfficial": 13485, "ĠSpons": 18182, "Ġ338": 39344, "erial": 48033, "feeding": 35151, "Ġmug": 20148, "Ġmercenary": 44257, "Ġending": 3558, "ĠAfric": 44285, "ĠWiggins": 25243, "Ġunworthy": 44196, "ĠWATCHED": 49336, "Ġ217": 26806, "00000": 25034, "Ġpaste": 25079, "Ġinjust": 33235, "ĠEFF": 18625, "ĠKKK": 34829, "Ġdefenders": 10792, "Ġupdated": 4752, "box": 8304, "Ġdecre": 33186, "Ġpesticide": 32066, "ird": 8602, "ogyn": 46730, "å½": 48944, "cific": 45404, "ingu": 35308, "cpp": 49317, "ĠConstantin": 43686, "Ġrockets": 19367, "Ġbloc": 7667, "Week": 26355, "ĠRoyale": 33218, "Ġaback": 36347, "Ġanyone": 1268, "Ġ@": 787, "ĠWhatever": 11999, "ĠPalmer": 9833, "ĠBoost": 25802, "ĠCad": 15307, "Ġmeasures": 1797, "ĠGenocide": 37727, "vre": 29416, "ĠLumpur": 19193, "Ġvertically": 32039, "Ther": 43958, "ummies": 38098, "Ġtag": 6694, "Ġsentient": 45517, "living": 26111, "ĠLowell": 27683, "Ġ1922": 36039, "ĠAvailability": 36540, "Ġvisa": 8915, "Ġsmashed": 13263, "ially": 11416, "Ġdiving": 12909, "strument": 41392, "ĠBarker": 21998, "Prin": 42544, "lined": 17422, "ĠNeeds": 28620, "Ġindicative": 22206, "idge": 15379, "Tomorrow": 38849, "Ġripple": 31228, "agents": 40784, "ĠApplied": 24298, "ĠTrail": 8393, "mans": 18370, "bones": 34394, "ĠOrd": 16702, "Ġjuxtap": 34778, "Ġwhining": 42729, "Ġshrimp": 22126, "completely": 28655, "Ġexporting": 25405, "ĠApache": 27563, "Ġgunman": 8928, "GW": 32880, "Ġunreliable": 31298, "Ġvegetarian": 24926, "oufl": 47449, "Ġdat": 13516, "Ġstrangely": 34374, "Ġmast": 29602, "Ġlaw": 488, "ĠOkawaru": 50239, "containing": 42480, "ĠCorrection": 35648, "ĠÎ²": 47743, "Ġincludes": 1171, "Ġperfectly": 6683, "ĠDrawn": 44242, "Ġascending": 41865, "ename": 45838, "ĠPatricia": 12372, "ĠGaga": 16169, "Ġbalcony": 19988, "Ġlinear": 26956, "ificent": 43160, "ĠPharaoh": 43901, "Ġsymm": 42662, "quel": 17418, "Ġbarrier": 9639, "ĠYen": 30377, "Ġskulls": 40730, "ĠApollo": 15675, "Ġcandle": 20261, "pec": 26512, "Ġiron": 6440, "Imm": 37380, "lvl": 49793, "play": 5785, "ĠMinisters": 18752, "ĠHoliday": 10824, "Ġcollects": 22671, "PH": 7561, "ĠLiberties": 23362, "Ġcriticized": 5888, "Few": 41026, "éļ": 48731, "Ġbrowse": 29248, "Ġpenet": 43463, "Ġdangerously": 24631, "paralle": 49148, "ĠRELEASE": 37877, "«": 4958, "ĠBarb": 12897, "Ġdynamically": 42972, "beer": 38788, "Ġpreced": 31984, "Ġparadise": 26215, "ĠInquisitor": 49098, "ĠCult": 26961, "ĠOp": 7286, "Ġok": 15983, "Kn": 30707, "ĠZombies": 44118, "Ġvaluation": 7440, "Ġhypoc": 44901, "Ġeveryone": 961, "inged": 25963, "311": 35925, "ĠEssex": 15252, "Ġmall": 9367, "banks": 27045, "949": 35862, "ĠWand": 20233, "Ġstandings": 10833, "Ġtrailers": 22365, "Starting": 39777, "................................................................": 48371, "Muslims": 40658, "ĠEdmonton": 7672, "Ġnoticing": 27515, "ĠPapua": 26150, "Ġepile": 44751, "oak": 32111, "010": 30583, "Ġlibertarian": 36471, "Ġserum": 38994, "Ġwik": 47764, "ĠBuffett": 17776, "ĠNin": 17450, "ĠLiberia": 16558, "Ġcalibrated": 42422, "Directory": 49226, "ĠPeoples": 14695, "Ġabstraction": 43909, "ĠHero": 15766, "ĠEmpty": 41183, "Gamer": 48379, "Michelle": 38268, "Ġpurs": 26934, "Ġthanks": 2446, "Ġearn": 4073, "ĠGuan": 36775, "Ġ37": 2908, "Ġelapsed": 43291, "ĠPlaying": 15861, "Ġdeleg": 25112, "Ġ-": 111, "Ġfloors": 11912, "ĠSchmidt": 13128, "Ĝ": 50136, "Ġbreakfast": 7080, "ĠSqu": 13840, "Mon": 17312, "ĠBlockchain": 25294, "362": 35665, "ĠSailor": 41535, "ĠCyrus": 20055, "Alex": 16804, "Ġtutorial": 35950, "Ġobserve": 14095, "ĠFA": 6236, "ĠEAR": 32029, "Ġgrasped": 43367, "Ġcultured": 43318, "ĠBuzzFeed": 14348, "Ġtransferring": 19116, "Ġexamine": 10154, "issue": 25268, "Ġsuspending": 25462, "ovan": 22015, "Ġdirectional": 40535, "undle": 42535, "spring": 36741, "Ġclinic": 8474, "iamond": 44318, "Äģ": 18195, "586": 38014, "ĠGitHub": 39097, "Ġcookies": 15269, "raft": 13001, "Ġnobody": 5907, "ĠTS": 12932, "ĠAcademy": 3536, "Ġfailure": 2988, "Ġexpenditure": 12187, "ĠMedic": 26413, "Ġrental": 7582, "ĠPork": 35385, "Ġaudition": 17476, "ĠReb": 21826, "ierre": 41307, "osity": 39533, "self": 13367, "ĠLif": 19556, "Ġhex": 38810, "Cong": 42337, "548": 38714, "Ġmisplaced": 33540, "man": 397, "ossession": 38030, "NM": 31156, "045": 39664, "Ġinstantly": 11764, "Ġrife": 27921, "Start": 33724, "fs": 17884, "ĠSabha": 13347, "frames": 42786, "ĠSoutheast": 6079, "Ġpers": 20187, "ĠDrivers": 16440, "Ġcleared": 6049, "nda": 24407, "Ġexternally": 38826, "Ġconstructed": 11236, "Ġcombinations": 21092, "jamin": 39730, "ĠNeal": 15454, "BI": 5383, "ĠToxic": 39304, "oted": 11367, "bledon": 9514, "Ġparticulars": 41639, "ĠAf": 6710, "Ġleftists": 40874, "Ġdistributor": 17315, "oat": 34827, "Ġhack": 14157, "ista": 6377, "Ġmixes": 29652, "ĠPel": 11787, "ĠFri": 12860, "Ġkindly": 27882, "Ġorange": 8978, "ĠWem": 46432, "ĠTrevor": 10251, "Ġenergies": 34185, "ĠSteele": 14556, "Courtesy": 25611, "Ġsuggests": 3649, "Ġrecovery": 2752, "dx": 46106, "Ġredd": 39275, "Ġdisclaimer": 40140, "akers": 6650, "controller": 45294, "Sup": 41192, "ĠCantor": 33047, "lip": 33330, "SA": 3603, "include": 47209, "ĠCancer": 7568, "Ġhockey": 5006, "ĠAnfield": 18476, "Ġconc": 10146, "Ġintolerance": 27488, "ĠReasons": 24776, "lass": 27355, "Ġtransgender": 7940, ":[": 48554, "ĠTrends": 16565, "ĠPortugal": 8062, "Ġwrists": 36093, "Ġfundamentally": 16894, "ĠCoffee": 12596, "Elect": 31824, "ĠLegs": 45394, "Ġtraditional": 2065, "Ġlayers": 13171, "ĠSaga": 39783, "Ġstudies": 3218, "Ġvalve": 24423, "hex": 43726, "Ġrobot": 9916, "ĠStill": 3180, "Ġdispos": 22031, "ship": 24754, "inel": 16653, "ĠAccounts": 27860, "ĠHindus": 30618, "âĢ¦": 1174, "Ġcooks": 26953, "forms": 33334, "Ġthefts": 25154, "ociate": 43097, "ĠArabic": 19645, "Ġpropel": 23859, "ĠWebb": 13804, "mic": 15796, "\"\"\"": 49849, "ĠVenezuelan": 14112, "ĠLS": 29881, "ĠLunch": 25090, "Ġinability": 12561, "BIP": 46258, "etsy": 46450, "brush": 30241, "charging": 22874, "Ġscept": 22865, "machine": 37556, "ĠFees": 39434, "Ġjud": 21392, "PF": 16088, "Ġanguish": 32446, "ĠLv": 45739, "Ġpredator": 25293, "Ġ$": 68, "osa": 5166, "Ġformer": 320, "ealous": 30783, "CRIP": 49101, "tesy": 44594, "ENC": 29076, "ĠHour": 16928, "Ġ666": 42206, "ĠSph": 46556, "Ġsuprem": 38066, "Handler": 49191, "ĠMoral": 42822, "terrorist": 31456, "ull": 5023, "Ġ34": 2631, "ĠKra": 16379, "Ġsalads": 26924, "Ġfuelled": 20972, "Ġrestraint": 20219, "OA": 16024, "Ġgravy": 33729, "Ġsuspect": 1985, "ĠCoch": 21742, "Ġstash": 34954, "ounty": 42440, "Ġbluntly": 36389, "ĠFarrell": 16451, "Ġpronoun": 44811, "acteria": 42069, "Ġdebunked": 37461, "ĠScroll": 10651, "Ġanchors": 32318, "unless": 36100, "Ġseven": 707, "OLOGY": 41819, "Ġaims": 5026, "Orange": 37264, "ĠBrass": 28309, "volt": 28989, "Ġpunitive": 21987, "agogue": 38617, "cin": 28366, "March": 11770, "Ġportrayal": 22910, "[/": 48505, "Ġrole": 774, "LM": 21672, "Ġouter": 15705, "Ġattorney": 1921, "ĠMMR": 42558, "['": 48759, "Ġunsu": 39166, "Ġcassette": 41662, "ĠPermanent": 20132, "Ġmobile": 1830, "LY": 14079, "Ġboundary": 16358, "ĠBlitz": 37751, "Ġruntime": 44190, "Ġnormative": 46165, "Ġemissions": 5035, "ĠGir": 10847, "Ġnotify": 18981, "Ġtor": 16535, "ouls": 44591, "Ġsubconscious": 38084, "Ġnonsensical": 42475, "Ġcorrecting": 35847, "ĠDirt": 36876, "Ġindic": 31171, "ĠSAT": 22818, "Ġ702": 24402, "Ġdelete": 17462, "Ġenhancing": 15550, "UA": 29766, "ĠLights": 19968, "ext": 16435, "ĠEngineers": 19168, "ĠSudan": 6312, "ovic": 4834, "ĠBrus": 38941, "ĠANY": 16005, "Ġcurly": 36305, "outh": 15617, "roo": 39247, "Ġshred": 27373, "ĠNB": 28868, "ĠInf": 7412, "daq": 5946, "Union": 28061, "Join": 41417, "ĠCharacter": 35177, "ĠNuggets": 19744, "Ġscanners": 35834, "ĠGoal": 17432, "301": 28167, "Ġwatershed": 25756, "Ġforcefully": 29034, "ĠThose": 2246, "ĠMovies": 27568, "Ö¼": 49105, "ĠMash": 17807, "Ġurgency": 14195, "Ġcommemor": 16293, "array": 30766, "erity": 44946, "manship": 17187, "ãģĻ": 48735, "ĠBottle": 37880, "ĠCONS": 33804, "ĠCare": 3800, "âĸĪâĸĪ": 49869, "Reading": 43952, "ĠTherefore": 9068, "Ġstir": 14351, "Ġwarfare": 18962, "ĠDent": 27461, "ĸļå£«": 50186, "Ġinaccurate": 20403, "Ġoptimization": 25212, "ãĤ³": 49195, "Ġcavity": 39276, "Ġperformances": 4476, "ĠLIKE": 38227, "ĠEstate": 9730, "Ġattic": 33093, "Ġlauncher": 38524, "Ġperilous": 33873, "ĠBritt": 16278, "ĠTess": 26876, "ĠDirections": 38490, "Ġ61": 5659, "=\\\"": 50003, "Ġincomprehensible": 42494, "religious": 32300, "Ġdebugger": 49147, "Ġimplying": 28695, "vance": 27647, "isha": 9268, "animous": 43229, "ĠSharing": 24277, "ĠBite": 41986, "Ġacts": 4504, "Ġterror": 5231, "Ġprogressives": 31627, "Ġexecuting": 19275, "ĠBra": 9076, "ĠScrib": 41652, "Ġadjusts": 37371, "ĠSaf": 11881, "Ġhiatus": 25224, "lege": 37777, "Ġsustained": 5232, "ĠKP": 19107, "ĠThor": 13111, "Ġrepo": 27640, "ĠZoo": 13398, "Ġformations": 28934, "sys": 43103, "ĠWrite": 21062, "Ġinterven": 34604, "ĠSomeone": 15412, "Ġpresumed": 23924, "abl": 23200, "Ġcompleted": 2121, "Ġvacc": 37980, "ĠTab": 12765, "days": 7033, "rue": 36297, "Ke": 19226, "Ġboun": 28211, "ence": 4086, "Across": 42945, "Ġtechno": 40385, "ĠMaximum": 35540, "Ġsetbacks": 21417, "Ġepis": 38862, "ĠKentucky": 4449, "Ġcounting": 10581, "Ġrudimentary": 41879, "Ġproceedings": 7069, "ĠMSM": 43596, "Music": 30591, "Ġshoppers": 9456, "ĠBalk": 28093, "iate": 10599, "itone": 38704, "itism": 30619, "209": 27434, "ĠReflect": 30920, "Ġfurniture": 8671, "ids": 7823, "ĠPIT": 34168, "661": 37499, "Ġmentally": 10072, "Ġfluctuations": 22798, "ĠPrinciple": 44528, "Ġrevisions": 24084, "Ġbakery": 22428, "ãĥķãĤ©": 49885, "rounder": 19630, "bad": 10999, "Ġelectors": 41752, "Ġdiesel": 7611, "ĠBLACK": 34101, "ĠReeves": 22777, "ĠCrazy": 24605, "1800": 38510, "Ġunbiased": 37309, "ĠFRE": 39924, "ĠAMER": 37501, "Ġdeeply": 4814, "depend": 45950, "Ġmarkers": 22462, "Ġguts": 29294, "Ġsacrific": 47271, "Ġdimensions": 22735, "wy": 13434, "ĠGawker": 43538, "Ġelong": 38889, "ĠInterest": 11748, "ALTH": 33086, "ĠCole": 7139, "clipse": 45528, "ĠWool": 14924, "aris": 17661, "omical": 40421, "Ġmodifiers": 47605, "hands": 34055, "Ġdidnt": 46405, "ĠLe": 1063, "Ġappra": 27200, "Ġstatistical": 17325, "Ġcomponent": 7681, "Ġcollabor": 33074, "ĠHouses": 27988, ".--": 42604, "Ġengages": 21549, "Ġcerts": 49112, "Ġinteger": 48335, "Ġmo": 7458, "ĠWrap": 35989, "ĠCoil": 46312, "Ġatheist": 41567, "Ġ\"-": 48336, "in": 179, "hops": 39294, "Past": 42282, "Ġconditioning": 15053, "outing": 25754, "Ġrecommends": 10827, "Ġinvested": 5221, "Ġmore": 55, "TERN": 37683, "IENCE": 41499, "Ġautoimmune": 35617, "atchewan": 46921, "Ġrogue": 22251, "Ġartistic": 11419, "iar": 12202, "unch": 11842, "ĠDirect": 10480, "ĠNad": 7157, "reat": 12353, "Physical": 46577, "Ġlarger": 2514, "ĠNode": 44058, "ĠTEAM": 27597, "achu": 46035, "Ġfearing": 21510, "Ġcelebrities": 8844, "ĠSCP": 47616, ".).": 24521, "ĠPresumably": 41366, "ĠFrame": 37280, "Item": 47599, "ĠJaguars": 11727, "Ġdisillusion": 33447, "Ġinher": 39449, "ĠKare": 19492, "Ġmonstrous": 34957, "empl": 33037, "ertain": 23801, "ĠXander": 36052, "Ġanth": 38631, "ERAL": 39243, "505": 35255, "Ġface": 652, "ĠDOM": 39514, "ĠSwed": 25517, "ĠBaldwin": 9853, "ĠExample": 42516, "ĠConc": 21657, "Ġpian": 23674, "Ġfiltered": 33459, "ĠHowe": 22654, "uminum": 46261, "istically": 18281, "Ġroutes": 7145, "Disk": 43766, "Ġdeployed": 6400, "ĠDEFENSE": 44152, "ĠPrin": 26093, "ĠScal": 23062, "Member": 45899, "ĠMer": 4213, "Ġdoc": 22053, "Ġhigher": 723, "Ġalong": 552, "ologue": 28789, "ĠMeyer": 11392, "ä¸ī": 49442, "Ġspawning": 40096, "Ġplacing": 9405, "unsigned": 49418, "ĠCalled": 28277, "Ġindecent": 24502, "455": 31546, "ĠChocolate": 22304, "usercontent": 49765, "ĠMile": 14640, "ĠImper": 43156, "GN": 17567, "ĠMountains": 17196, "ĠChromebook": 27202, "ability": 4484, "ĠHDL": 46108, "Ġling": 24433, "Ġdeclines": 11081, "ĠDenmark": 10060, "568": 40204, "Elsa": 48155, "abase": 46972, "Follow": 18622, "Ġfought": 4951, "Investigators": 40333, "Ġdegrade": 38890, "Ġparser": 48946, "Ġprojector": 35282, "ella": 8461, "Ġforecasting": 17746, "negie": 48451, "Ġcitation": 31825, "HL": 8064, "UCT": 28120, "her": 1843, "Div": 37165, "221": 28730, "ĠTwin": 15070, "atche": 36582, "ĠVatican": 11484, "prem": 20692, "ĠTuesday": 294, "Fe": 29037, "Mad": 21067, "041": 41450, "Ġpaperwork": 14630, "alled": 9315, "ĠPlains": 17354, "iths": 47029, "Ġreinforcement": 37700, "auld": 34860, "Ġtakeaway": 23028, "Ġverge": 17563, "Ġsal": 6641, "temp": 47946, "ĠPrices": 14614, "UV": 31812, "Ġarticles": 7201, "Ġclan": 26502, "Ġpounds": 2697, "olate": 41511, "ĠBCC": 22784, "omach": 44637, "ĠLiang": 38400, "nen": 19596, "Pur": 39740, "Ġneurological": 27548, "Ġrant": 25693, "559": 38012, "ey": 2981, "Ġexclusively": 8992, "ĠMyst": 41375, "Howard": 41051, "Ġspokes": 31950, "03": 3933, "809": 36621, "Ġmish": 24601, "ĠMonetary": 12387, "ham": 1908, "Ġouts": 10229, "Space": 27404, "Ġdefund": 39483, "Ġbipartisan": 10094, "ĠBernardino": 18729, "ĠFreeze": 36996, "Ġrookies": 23711, "rosse": 19844, "ĠDex": 40231, "oration": 18620, "ĠCLIENT": 48881, "Ġoutgoing": 14234, "Ġenter": 2914, "ĠLa": 1587, "Ġinterviewing": 21514, "Ġjudgement": 17219, "ĠDreams": 26843, "Ġorigins": 18863, ")</": 50017, "Ġescorted": 19386, "ĠObesity": 40931, "ĠSk": 4058, "Ġ2048": 46920, "Ġuncon": 28198, "ĠGovernment": 1621, "articles": 32315, "Ġspirituality": 37093, "Ġeach": 349, "Ġmess": 7319, "meet": 29933, "Ġpriv": 20955, "ĠQR": 36323, "Ġcorresponds": 40189, "===": 47463, "Aud": 37779, "ĠCitizenship": 32186, "Ġrunoff": 17020, "Ġrenewed": 7867, "Ġstrips": 22395, "Seeing": 37818, "icular": 21953, "Ġstunning": 5835, "Mult": 45287, "Ġwillingly": 32829, "ĠMattis": 10860, "nel": 18902, "xe": 42336, "tp": 43379, "iness": 6601, "ĠLer": 23813, "Ġinadequate": 15650, "Dragon": 43273, "as": 281, "ĠHAR": 32721, "Ġlegalization": 18426, "ENTS": 29203, "Ġpresiding": 26024, "Ġguard": 2510, "Ġwine": 3984, "Ġ})": 49000, "lett": 8211, "ulp": 31777, "Ġplans": 708, "Ġbottle": 7304, "ĠStarCraft": 47453, "ĠDRAGON": 48397, "FIG": 46741, "Ġdrawer": 31807, "Ġattributable": 18297, "Ġcodec": 45797, "Ġtyranny": 36333, "Ġgluten": 22994, "ulsive": 25170, "ĠWish": 27383, "Ġgenius": 16333, "995": 30739, "ilers": 39256, "Ġjackets": 20200, "Ġesteem": 38638, "ĠMouse": 30693, "acements": 38545, "regular": 32786, "Ġpaw": 40373, "Ġgod": 9069, "Ġcomrades": 32287, "ĠMLG": 48871, "taker": 15232, "ĠZamb": 14400, "ĠPaul": 1206, "ĠEver": 7989, "feature": 44565, "Ġvarying": 15958, "ĠCrack": 38760, "Terror": 35568, "ĠHeath": 12424, "Ġhated": 19975, "Ġlinem": 43646, "aghd": 40765, "ĠCharges": 29440, "abeth": 31012, "Pat": 18276, "Ġ135": 16157, "41": 4006, "ĠOB": 28214, "ĠSport": 5413, "Ġfolding": 29556, "Ġparallels": 29811, "','": 47429, "ĪĴ": 49846, "Ġarist": 38939, "Kenn": 39361, "fortable": 38093, "kids": 28371, "Ġreplies": 21390, "Ġdrastic": 19167, "igun": 46850, "Ġchap": 38328, "fully": 6459, "orically": 33848, "âĸĪâĸĪâĸĪâĸĪâĸĪâĸĪâĸĪâĸĪ": 49911, "Ġexpress": 5486, "ORED": 46818, "Ġspectacular": 8694, "Ġthreads": 25816, "ĠPV": 23774, "Ġemployee": 3200, "Ġdopamine": 40965, "ĠWast": 41768, "Ġemptied": 35371, "wei": 21225, "Ġprocurement": 13803, "ĠBrigade": 24715, "Ġbattered": 18432, "shit": 43258, "Ire": 48000, "Ġappointments": 11076, "Ġfloated": 19387, "ĠChong": 25932, "ĠBachelor": 11715, "Ġstandard": 2526, "Ġstatistics": 6732, "colored": 21189, "Ġarche": 35680, "Ġrecording": 5492, "Ġpromotions": 16668, "Ġevasion": 23397, "Ġoutfits": 14755, "Ġfaithfully": 38666, "Always": 37478, "Whereas": 45210, "ĠRewards": 37386, "Ġprobing": 24097, "axe": 45269, "ĠBug": 22700, "ĠLeave": 15084, "Ġannounces": 13835, "Ġunh": 24376, "ĠRh": 8778, "ĠReincarn": 49274, "ĠFriends": 7837, "Ġresusc": 31439, "Ġdevelopments": 5126, "ĠFlores": 17318, "adiq": 27781, "Ġselections": 18310, "ĠMuk": 11623, "ĠElder": 23026, "Ġpassion": 5440, "ĠNort": 17614, "Ġbureau": 12331, "Ġdiapers": 30459, "COMPLE": 49048, "Ġlaunchers": 38697, "Ġwhat": 99, "ĠAly": 25550, "ĠMicha": 44674, "Ġsculpture": 18185, "Ġthrows": 6989, "Ġfactor": 3724, "ĠPes": 20127, "ossus": 45786, "ily": 5846, "ĠHaitian": 32935, "Ġleukemia": 28837, "Ġdirects": 24564, "ãĤĴ": 48423, "database": 48094, "Ġcurses": 45471, "Ġdocks": 33970, "ĠSpurs": 7963, "Ġneeds": 782, "Ġherself": 2864, "ĠBand": 6191, "Ġexert": 21655, "Ã¡": 1526, "Visit": 45070, "seven": 17723, "Ġbulbs": 27353, "ĠHUGE": 43125, "ĠVengeance": 46612, "Ġdeletion": 43762, "Ġlean": 11257, "ONT": 34874, "Åį": 38183, "ĠDirection": 29332, "Ġnationals": 12437, "Ġem": 2841, "Ul": 41436, "Ġrecharge": 25850, "eral": 6653, "Ġtackles": 7955, "ĠGeneric": 43411, "Ġcontributing": 8216, "Ġgalaxy": 22703, "ker": 5029, "Ġcreates": 6670, "ĠCodes": 45019, "Ġ570": 22599, "Ġtremend": 48578, "Ġpigeon": 38549, "ernel": 48954, "ĠFet": 39099, "tern": 18995, "Ġparanoia": 36379, "Ġadversely": 27112, "Ġogre": 48238, "ensen": 23891, "Administ": 45597, "Ġdepression": 6943, "pac": 21091, "Ġmounting": 12033, "Ã¨re": 18655, "ĠExam": 40083, "Ġsa": 2241, "Ġterminals": 20531, "Ġtrapped": 8240, "ĠBox": 7803, "ĠStamp": 35782, "Ġcareer": 756, "Ġbeg": 21422, "Ġstru": 39180, "Ġunwillingness": 36903, "ĠDew": 17340, "apes": 22179, "ã": 48064, "ĠPract": 26846, "Ġpreferring": 32182, "hidden": 37392, "Ġspreadsheet": 37510, "Ġ+": 2055, "killed": 39132, "MX": 39810, "Ġspoon": 25409, "Vict": 32094, "Ġmc": 44355, "ĠTexas": 1184, "ĠInstructor": 42591, "Ġfeed": 3993, "flame": 45992, "Ġphilanthrop": 14054, "ĠPolar": 26279, "Ġinhibitors": 34596, "Ġclown": 21068, "Ġpays": 7634, "Ġrethink": 22773, "989": 40391, "=\"": 40635, "tons": 38550, "ĠTransfer": 18853, "ĠBentley": 17671, "ĠAbortion": 38472, "Ġroll": 3825, "umper": 33004, "ĠLives": 13409, "HP": 7331, "145": 16504, "Ġtrail": 5592, "Ġcolonization": 43000, "Ġdownright": 28686, "Ġappeared": 1382, "cyclop": 47495, "Ġfleeing": 9886, "rate": 7954, "Ġmelanch": 45565, "em": 991, "Ġcapsules": 34589, "Ġarguably": 10522, "nings": 9523, "illo": 6491, "Ġspying": 24114, "Ġ1100": 28658, "Ġchemicals": 8321, "Ġunified": 16681, ":(": 48329, "Ġlang": 22682, "Ġ309": 36402, "ĠSmash": 34402, "Ġsilicon": 28630, "Ġinertia": 42978, "ĠRaphael": 29719, "Ġexpansions": 27577, "ĠRemote": 33565, "Ġblockers": 39991, "ah": 895, "Was": 32112, "Ġbalanced": 9320, "cuts": 36573, "ĠWeb": 6494, "aughters": 28649, "umenthal": 48679, "assing": 13613, "Ġaffidav": 41119, "ritis": 37830, "Ġincorrectly": 27821, "Ġprobably": 1153, "ĠThr": 25181, "Ġgenerates": 17382, "alt": 3967, "Ġdogged": 23597, "Ġtrial": 1500, "Ġdownloads": 28403, "eating": 29100, "Ġreceipts": 20032, "Ġdazzling": 25435, "again": 23201, "Ġutilitarian": 43667, "Ġadam": 40587, "ĠAust": 18933, "ĠK": 229, "ĠFighter": 27926, "attle": 19598, "665": 35321, "ecided": 46041, "ĠUrs": 28861, "ĠReborn": 47809, "are": 1322, "Ġful": 43142, "ĠOrganisation": 13158, "Ġchoir": 18558, "BC": 3573, "Ġfeminism": 28228, "Ġflying": 4731, "ĠGohan": 48774, "Ġanticipation": 14714, "XX": 18313, "daughter": 26243, "Ġattributes": 16763, "Ġheaders": 42211, "ĠSwamp": 39235, "Ġvalidated": 29548, "================================": 49774, "conservancy": 49273, "urai": 38903, "cause": 27037, "Ġcomb": 14960, "Ġcontribute": 5042, "Ġdebian": 49749, "Ġcapital": 812, "Ġlabel": 6929, "ĠMori": 32097, "mal": 10417, "uppet": 43317, "Ġcompile": 33172, "Ġcareers": 8478, "Ġrequiring": 7980, "Metal": 44791, "Ġcleanup": 17344, "irable": 45770, "ubis": 47231, "wow": 34798, "Ġmountains": 9787, "Premium": 46025, "ĠJoseph": 3351, "ĠPharm": 20665, "Ġmonopol": 33332, "Live": 16549, "Ġrenewables": 26618, "abi": 10810, "ĠTDs": 18130, "ĠVolt": 36589, "icks": 8370, "Ġ503": 34531, "Sum": 38182, "ĠKaw": 13694, "787": 38444, "internet": 42182, "ĠDiego": 3402, "ORS": 18347, "ĠExpect": 12809, "Ġacne": 30360, "ĠSenator": 4336, "Ġthus": 4634, "Viol": 40883, "120": 10213, "Ġparade": 6767, "ĠCenters": 11825, "ĠInvestigation": 10804, "HM": 35441, "Kar": 28759, "Ġdefines": 19857, "ĠAlexandra": 17711, "ĠHayden": 18703, "asion": 27720, "ĠSalman": 8965, "Ġassure": 14144, "Ġdep": 8273, "Ġresulting": 5203, "nerg": 27093, "024": 40044, "Ġexpansive": 21734, "Ġenglish": 47510, "osure": 42971, "ĠBerkshire": 16563, "Wa": 38065, "Ġ[*": 49097, "enemy": 41320, "ĠSpencer": 8153, "Ġcaucus": 17889, "Ę": 50132, "structed": 28354, "rology": 27895, "Ġit": 24, "ĠCrystal": 9793, "cc": 7309, "Ġpreference": 12832, "Ġpot": 4728, "Ġhovering": 24752, "Ġdeployment": 9737, "Recently": 38386, "gang": 21251, "Ġmeltdown": 24053, "Ġtu": 13145, "ĠSTL": 45539, "ĠAram": 21918, "Script": 30276, "Ġnervous": 7464, "Ġdusty": 31430, "ĠBind": 37685, "Ġgru": 15551, "ĠBorderlands": 47205, "Regarding": 44401, "ĠChern": 34340, "Ġcampaigns": 6392, "Ġ505": 38427, "Success": 42697, "Ġfreaking": 33432, "Ġcolossal": 33568, "visible": 42152, "Weather": 29840, "Ġeuros": 2729, "Ġfur": 15503, "Ġexplosives": 16174, "Ġtender": 8780, "Ġturbine": 29503, "Ġscale": 3189, "Ġhighlights": 5586, "ļ": 15113, "ructose": 47631, "654": 38138, "ische": 17225, "rule": 28523, "Ġjihadist": 25814, "uring": 5206, "ĠSev": 15206, "Ġchants": 25157, "Ġcance": 21338, "Ġclos": 20956, "ĠStraight": 30020, "ĠDOD": 43001, "Ġinciting": 30752, "Ġ1934": 28955, "Man": 6407, "cl": 3998, "ĠWhilst": 29339, "Ġlineback": 47690, "Ġactivates": 42569, "high": 3530, "Ġpromoters": 28992, "ĠMove": 18001, "ĠWCS": 44609, "Ġrollout": 19461, "LET": 24258, "limited": 27829, "fort": 12322, "Ġvehemently": 26981, "Ġenvoy": 16094, "viks": 46040, "Ġmiracles": 36893, "Ġacquaint": 47577, "ĠSmoke": 21389, "ategory": 49687, "ĠM": 256, "Th": 11329, "Ġraise": 1693, "Ġtransmitter": 42055, "ĠUnderworld": 46266, "Ġreturning": 3357, "ĠStaff": 5721, "ĠWass": 36442, "ĠALWAYS": 44171, "Ġpreferred": 6813, "Ġcathedral": 28457, "Ġembryo": 37961, "Ġassociation": 5259, "Ġcohesion": 31657, "ĠTimes": 1513, "Ġcontrary": 11159, "Ġimmutable": 45495, "ĠOo": 41189, "merga": 41386, "ullivan": 46678, "Ġvag": 32447, "lete": 16746, "Ġhobby": 21039, "tions": 31291, "Ġblades": 28296, "ashi": 11786, "ĠCould": 9918, "ATING": 18990, "Ġatten": 45497, "Ġvom": 23953, "Ġnut": 17145, "Ġconferred": 35851, "517": 39356, "Ġlights": 4666, "Ġclothes": 5418, "enfranch": 48717, "Ġissuing": 10392, "Ġfrequently": 5705, "xp": 44813, "ĠCatholics": 22509, "umbo": 20031, "aughed": 48250, "Ġemer": 20583, "jl": 43720, "Ġrhythms": 32618, "Ġ260": 19809, "lia": 14190, "hee": 14603, "ĠAwesome": 40136, "PT": 10311, "BBC": 28713, "dylib": 49973, "itive": 15589, "Ġshapes": 16499, "Ġarchives": 23697, "inter": 8007, "attack": 20505, "Advertisements": 49652, "ĠRecommend": 31684, "ĠNYPD": 20283, "ĠMarcus": 7380, "ĠCPU": 21032, "Williams": 23886, "albeit": 41324, "ĠGOP": 3932, "alted": 43332, "ĠSites": 34840, "Go": 11478, "Ġgrowth": 434, "RAM": 19496, "Ġtitle": 1270, "ĠBirmingham": 8353, "Ġtert": 31402, "Although": 13863, "Ġparking": 2932, "ourge": 47667, "Ġmultiplying": 44013, "Ġdelegated": 42304, "ptin": 47746, "Ġproblems": 1272, "},\"": 37637, "Pack": 31331, "Ġslash": 18304, "ĠFitness": 18961, "iang": 14607, "Ġencrypted": 25972, "ĠYesterday": 15267, "azor": 39784, "anol": 38315, "Ġ1937": 31556, "Ġpresc": 39591, "Act": 26880, ".),": 12345, "Ġembold": 24762, "Ġcone": 33216, "Ġ($)": 41945, "Ġassembly": 6559, "Ġendorse": 18839, "Contents": 49482, "oka": 12999, "ĠEminem": 34749, "ĠOCT": 33885, "Ġfisheries": 25173, "berto": 38128, "control": 17665, "cial": 15585, "åĬ": 47645, "Chapter": 45642, "Ġkeeping": 2396, "ĠExperts": 12511, "ĠAUT": 40015, "pard": 47247, "This": 713, "Ġdiscriminatory": 22587, "ĠSloven": 37650, "Ġonce": 683, "ĠPatron": 37783, "Ġastronaut": 23910, "Ġguitar": 8669, "anked": 22697, "ĠJudge": 3052, "esides": 46463, "Ġdifferentiate": 26162, "Ġim": 4356, "ĠShank": 20908, "Sorry": 31535, "Icon": 45686, "Ġmot": 18408, "ĠArchdemon": 49994, "ĠPacific": 3073, "QL": 42111, "Ġspiders": 34558, "Ġemoji": 21554, "Pro": 10653, "escent": 42473, "Policy": 46159, "ĠMartin": 1896, "Ġpiv": 35071, "669": 36400, "Ġrevolution": 7977, "Ġassaults": 15624, "Ġdonated": 6652, "Ġneighbourhoods": 26075, "%]": 48513, "ĠDek": 33519, "uming": 20016, "Ġmanipulating": 30830, "Ġdentist": 26565, "rigan": 27294, "ĠAstron": 24494, "Ġtunes": 19764, "ĠAviation": 10333, "Day": 10781, "rike": 39969, "Ġhtml": 48445, "Ġmanuals": 42798, "ĠForever": 25201, "Ġsleeper": 36170, "Ġstranger": 12443, "Ġ198": 30858, "ĠGuinea": 14667, "Ġtonight": 3422, "ĠMO": 11757, "ĠMIC": 29615, "Ġconvol": 49700, "ĠJub": 20949, "llers": 20855, "27": 2518, "Ġagreeable": 43359, "ident": 8009, "received": 33979, "Ġresolve": 5728, "Ġdimension": 21026, "FER": 19296, "Ġdispatched": 14987, "ĠReaction": 39067, "Ġfacilities": 2644, "ĠKinnikuman": 50013, "ĠHost": 10664, "ĠOsiris": 46240, "redients": 48205, "ĠLoyal": 33872, "ĠExport": 21916, "Ġwreck": 15107, "Ġdisciplined": 16920, "Ġtoy": 10771, "Road": 32009, "ĠNationwide": 27812, "ĠFior": 42279, "Ġpsychic": 39297, "competitive": 29288, "Southern": 35984, "Ġexecutable": 47251, "Ġunidentified": 13551, "ĠSpread": 29192, "ĠMembership": 35522, "Ġ99": 6705, "lad": 15356, "Conf": 33295, "fin": 13597, "Ġrefuse": 10383, "bold": 30508, "Cmd": 49530, "Ġcraving": 32659, "Ġdamaging": 9055, "Ġsexually": 5912, "lets": 10219, "Ġgolden": 9030, "ĠLIM": 30067, "ng": 2590, "Ġfit": 2564, "Ġneighboring": 10935, "ede": 12820, "Ġassets": 1781, "gay": 22019, "ĠSlow": 26720, "ĠDalai": 36315, "675": 32103, "Ġio": 46155, "oha": 15202, "KB": 36640, "Ġdecade": 2202, "Dur": 38178, "Ġsugar": 4696, "ĠChase": 6385, "Ġtabletop": 43519, "''": 17809, "ĠCurrently": 7519, "Ġgodd": 46438, "ha": 1999, "Ġtoxicity": 35260, "Ġparties": 1799, "ĠTwe": 18868, "Hello": 31414, "MEN": 42717, "Ġkilled": 848, "Ġlif": 14241, "Ġunderworld": 40223, "Ġculture": 2040, "erey": 16916, "Ġmental": 2536, "ĠRuth": 10871, "ĠBain": 19758, "Ġdoi": 36815, "Ġemitted": 37141, "ĠGur": 11062, "Ġexplorer": 34593, "Ġfading": 25189, "ĠScouting": 36795, "Ġperpetrated": 30122, "Ġexceptions": 18286, "Ġnightclub": 14126, "Ġcombustion": 31620, "alysis": 45253, "unin": 45146, "\\\">": 50206, "Ġlinked": 3307, "Ġeducational": 5984, "ĠJazeera": 32427, "Ġbillions": 6685, "Ġoccupant": 31951, "ĠGuth": 27051, "Ġcultures": 13426, "engers": 20434, "Ġreferen": 48655, "Ġvalley": 15044, "Ġunderest": 39959, "ĠQ": 1209, "Ġpixel": 29597, "Ġcorrespondent": 14093, "ĠKeller": 20116, "UPDATE": 34543, "luent": 42517, "Ġflavorful": 41202, "Ġhandshake": 31142, "ĠCalifornia": 886, "uin": 39808, "Ġeducation": 1265, "Ġfueled": 13653, "Ġsuspend": 13085, "Ġincrements": 40390, "crow": 43520, "Ġbrown": 6219, "179": 26340, "Ġdemanded": 6075, "Ġdeaths": 3257, "ĠEnvironmental": 6982, "Ġopposite": 5483, "Ġfallen": 4491, "icious": 16003, "fet": 42109, "unct": 27688, "Kay": 28421, "Ġnegligent": 29538, "Ġcowardly": 36881, "anda": 5219, "IBLE": 32525, "erate": 45329, "Ġpg": 47194, "Ġefficacy": 22081, "reading": 30164, "Isn": 43041, "Jun": 31036, "service": 11131, "national": 11535, "cross": 15329, "Ġintegral": 14876, "ĠTampa": 6415, "ĠSphere": 45644, "bye": 33542, "Ġfinalists": 14654, "Ġdiscusses": 14524, "ĠSupplement": 44484, "Ġshirts": 15331, "plets": 38041, "ĠSao": 20960, "Ġtheolog": 43562, "Ġbold": 7457, "Ġnefarious": 33952, "ãĤ±": 49733, "ĠREPORT": 13060, "Ġreplicated": 32451, "ĠTM": 27290, "Aren": 40921, "ĠSharp": 14765, "Ġtrunc": 43064, "Ġdescended": 22306, "Ġquestion": 864, "Ġoverseas": 4886, "kson": 27980, "LOCK": 45268, "LOD": 48707, "Ġsincerely": 24740, "Ġdelicate": 15651, "Ġfailing": 4551, "Ġbuy": 907, "Ġur": 11540, "Ġfir": 20018, "Ġmajority": 1647, "ĠEstimated": 33991, "rak": 9418, "ĠCONFIG": 49517, "ĠFont": 15440, "ĠAI": 4687, "Ġresurgence": 23490, "Ġdisabled": 6242, "ĠMeta": 37622, "iece": 39426, "minster": 33422, "inous": 41719, "ĠMalaysian": 11833, "Ġcounter": 3231, "ĠParents": 13791, "?]": 40862, "ony": 6119, "ĠWarsaw": 21115, "Ġmislead": 34747, "ament": 5511, "ĠSho": 17411, "Ġaptly": 34155, "Ġresume": 6654, "Authent": 48151, "ĠRestaurant": 11561, "urned": 28426, "used": 6199, "ĠRams": 5474, "147": 26629, "ĠACC": 10018, "Ġrenovations": 18748, "Ġembodiments": 48974, "ĠFract": 45274, "ĠPocket": 10545, "Ġcrowded": 11138, "ott": 5229, "ĠMarried": 30918, "Adapt": 46874, "ĠTy": 5957, "Ġbacklash": 10279, "Ġche": 5851, "ĠMaurice": 21038, "Ġkey": 762, "ĠES": 18366, "would": 14656, "ĠHomeless": 25900, "Ġwatered": 36408, "Ġsear": 38850, "Ġproponent": 33060, "famous": 30688, "Ġcider": 27415, "Ġinsisted": 5294, "Ġdispens": 22946, "Crypt": 44623, "ĠGuess": 31239, "Ġweld": 36736, "Ġserve": 1807, "Ġinstallation": 8809, "ript": 36423, "Ġfaculties": 43631, "ult": 6070, "foo": 48359, "Ġattaches": 40459, "Ġsupplying": 18866, "gomery": 41760, "Ġcoin": 12911, "Ġwraps": 18166, "ar": 271, "aways": 17119, "ric": 4063, "ocity": 36139, "Ġoverboard": 35912, "Ġhegemony": 40408, "Moore": 34787, "Ġcode": 3260, "ussian": 42472, "Ġinfluences": 16882, "Ġcheat": 23532, "ĠBerlin": 5459, "iolet": 41790, "ila": 4882, "ĠApostle": 41275, "Ġyelled": 19475, "ĠDaniel": 3028, "Static": 48927, "ea": 13184, "Ġendangered": 14739, "Ġthroughout": 1328, "Ġqui": 15087, "Ġdefic": 48624, "gamer": 45864, "Recent": 39936, "ĠThought": 30631, "Ġsaddle": 31383, "art": 2013, "ĠCreed": 27364, "onge": 28879, "horn": 20968, "cand": 32503, "Ġneg": 15183, "Ġalgae": 25237, "Ġincentive": 10814, "ĠCatalyst": 34701, "Ġswitched": 12012, "Contribut": 47222, "Ġwallets": 28811, "ĠAnglic": 32631, "Ġrepro": 42741, "uch": 4272, "Ġgenerally": 3489, "Ġdisadvantaged": 24341, "Ġbetting": 9262, "ĠDecoder": 49227, "Chance": 35272, "terror": 26213, "950": 24378, "Ġest": 3304, "Ġglyc": 46440, "çĽ": 48328, "Ġmiscon": 47434, "ĠPerez": 8858, "mobile": 25254, "Ġgobl": 49948, "Ġpronounce": 25967, "Ġ608": 43532, "ĠIly": 33612, "ĠHEAD": 36337, "WF": 34189, "ĠPog": 12890, "Ġfinancial": 613, "Ġregrett": 31433, "ocative": 36041, "264": 29137, "Ġcomplaints": 4496, "Ġsizable": 23319, "Ġinvention": 26101, "Ġmiscarriage": 32787, "ĠGB": 7216, "hillary": 48926, "Individual": 43174, "Files": 14824, "Tuesday": 25464, "Ġslipping": 18991, "ĠLawrence": 6226, "ĠChicago": 1568, "ĠMotors": 8484, "${": 49316, "Ġsounding": 23266, "Ġglossy": 29282, "ĠIST": 15123, "ĠDept": 27212, "Ġpollutants": 29791, "Ġvari": 44243, "Ġmk": 45924, "ĠOper": 23701, "65": 3506, "Ġimminent": 12816, "Ġoutward": 27912, "Ġbenefit": 1796, "Ġ1944": 26447, "Ġproletariat": 47524, "Ġtenants": 12004, "Ġmaintains": 11498, "Ġtranscript": 12348, "Ġrenders": 33428, "nb": 40460, "MY": 25518, "orne": 12266, "Ġtransparent": 8818, "Ġsham": 31026, "Ġsand": 6255, "ynasty": 47287, "ĠCarpenter": 17913, "Ġunlaw": 49278, "Mars": 41521, "ĠCALL": 26509, "BT": 13269, "arians": 13291, "Ġdeployments": 28684, "ĠPeterson": 9558, "CS": 6842, "rompt": 47170, "ĠLas": 2588, "Ġtaken": 551, "hat": 8849, "anz": 14799, "Ġhypothesis": 31098, "Ġobsc": 33718, "Ġnearby": 3027, "Ġvertical": 12194, "ĠMack": 6309, "ĠInput": 41327, "btn": 49231, "ĠMakoto": 46383, "ãĥĸ": 49542, "Listener": 48887, "ĠInformation": 3522, "ĠTemporary": 36371, "ĠPhilosophy": 42232, "enable": 30743, "Ġpleasant": 16219, "Ġcells": 4590, "ĠSawyer": 29644, "inational": 45188, "Ġopposing": 9375, "Ġtaxp": 47979, "Ġneighbourhood": 12258, "Ġhosting": 5162, "ĠChr": 22006, "ĠFast": 9612, "ctr": 47732, "Ġs": 579, "Ġangular": 42970, "comm": 24302, "ĠDocumentation": 46273, "iper": 17453, "Ġequival": 38933, "ht": 6083, "MET": 43543, "valued": 17546, "Ġknowingly": 27716, "ĠDickens": 34120, "CHR": 34990, "Ġbiochemical": 44956, "Ġam": 524, "Ġclandestine": 35146, "Ġcollateral": 17944, "Ġintroduction": 7740, "ĠDesign": 7438, "endant": 25113, "Ġlashes": 33727, "Ġuniversities": 6630, "bre": 7805, "ĠDisorders": 41264, "athon": 23357, "ogh": 28552, "Cross": 34385, "ĠPrel": 26449, "Ġdelta": 38744, "lr": 35265, "Ġdamp": 14324, "ĠBrazil": 2910, "oj": 4203, "ĠTau": 29666, "Best": 19183, "luck": 20540, "Ġrein": 9493, ")(": 21704, "ĠBLM": 35458, "ĠMTV": 16510, "ĠGan": 16929, "Return": 42555, "Kevin": 21910, "Ġperspectives": 17403, "ĠLantern": 40479, "ĠArmageddon": 44586, "Ġcomprising": 14096, "Ġtalent": 2959, "ģ«": 49637, "Ġissuance": 14787, "Ġviability": 23990, "Ġrestrain": 32249, "Ġflesh": 18940, "izzy": 30531, "Ġstimuli": 42940, "Ġparked": 9181, "Ġcrest": 32220, "ĠAnth": 38188, "Ġoutput": 4195, "ĠCincinnati": 6322, "ilion": 28396, "ĠAsc": 41349, "Ġshoulder": 4793, "Ġdetect": 10933, "ĠPatri": 24835, "Words": 38257, "Ġcrafting": 25699, "Model": 45149, "EH": 38832, "rew": 10461, "ĠDeb": 10532, "ĠPhase": 11028, "ĠFuck": 43774, "ĠSomew": 43618, "ĠYanuk": 36479, "ven": 2987, "Robin": 43185, "ĠSouthampton": 11666, "Ġmono": 42125, "ĠSupply": 13612, "Ġtracing": 35105, "Ġdeportation": 11661, "ĠHAVE": 27789, "Someone": 29375, "ĠJoin": 10287, "ashtra": 42252, ".*": 26487, "ĠXiang": 43445, "Ġ225": 15751, "ĠNiÃ±o": 39170, "itty": 18308, "Ġbanquet": 28203, "paren": 45208, "ĠFalling": 35647, "lang": 32373, "Ġharb": 32435, "Ġreconcile": 27389, "past": 33456, "Ġtouchscreen": 24642, "462": 37045, "Ġprofessor": 3097, "etric": 25286, "Ġmete": 33713, "Ġsatisfying": 17758, "500": 1497, "feat": 42800, "ĠAQ": 33043, "system": 19675, "ĠCSV": 47896, "Ġsurprised": 3911, "ĠAngelo": 25348, "Lead": 32258, "Ġdeed": 28936, "icus": 31913, "ĠDisco": 41240, "Ġdifficult": 1202, "been": 35507, "Ġrefugee": 7220, "Seriously": 45067, "Ġver": 4342, "ĠRift": 32334, "]);": 48601, "AMI": 17581, "Ġspeculate": 20947, "Ġprinciple": 9322, "Ġdeceit": 35049, "otle": 23592, "Ġcomprom": 40734, "Reference": 45963, "eday": 43975, "Ġrate": 731, "è»": 49416, "Ġupgrade": 6662, "ĠMirage": 39368, "Tur": 38110, "Indiana": 42875, "Ġnurse": 9008, "Ġsap": 34908, "C": 347, "Ġwireless": 6955, "ĠHicks": 15105, "azy": 24832, "Ġvir": 26354, "Ġwasteland": 43689, "cow": 31645, "Spring": 32858, "ĠLover": 39492, "Ġreelection": 28683, "Ġcollection": 2783, "arity": 21528, "orian": 23943, "Charge": 44136, "Ġaver": 25542, "ĠNote": 6068, "Ġhelpers": 35755, "Ġvigilant": 17258, "Al": 7083, "ksh": 19437, "ĠPROC": 36352, "ĠArgentina": 5244, "Ore": 41635, "Ġcircadian": 43079, "ancer": 20126, "aternity": 36156, "Ġuninsured": 24552, "Ġaccomplished": 9370, "NK": 39933, "Ġmigr": 30034, "oslav": 39834, "Ġdiffered": 38320, "Neill": 12017, "Ġlact": 36149, "Ġafflicted": 39234, "ĠTopics": 17266, "Ġhotline": 22922, "=$": 45946, "figure": 23972, "ĠYad": 12098, "js": 21978, "ĠSTOR": 17399, "Ġeliminating": 13209, "Scan": 42450, "icia": 16488, "ĠStarted": 35465, "Ġ1904": 42224, "ĠApr": 14830, "ĠPOST": 26540, "ellar": 40909, "Ġwell": 157, "opathy": 31395, "Ġcart": 9727, "Kit": 29233, "Ġterr": 17420, "orah": 35030, "anto": 13688, "Loop": 47736, "Mir": 32686, "Ġjoints": 24944, "ĠCrawford": 11245, "Ġtypically": 3700, "ĠGran": 9328, "Ġfoods": 6592, "anasia": 37935, "Ġglitches": 37224, "Ġinvoking": 36312, "anie": 23302, "iba": 15577, "dar": 20490, "Ġwriting": 2410, "Prof": 42133, "ĠPenal": 31486, "Ġdesp": 18690, "Ġtakeoff": 32061, "Ġpeculiar": 28178, "ĠFug": 34704, "ĠJoel": 8966, "Ġpencil": 21451, "pub": 22478, "ĠXi": 7030, "Security": 36090, "imer": 15677, "ĠExcellent": 34975, "ternal": 46378, "Ġcapsule": 23143, "ĠSlam": 10446, "www": 1401, "ĠMeow": 46356, "Ġnearly": 823, "ĠSPI": 44114, "got": 22371, "ĠCards": 17972, "Ġstopp": 16133, "Craig": 39230, "Wood": 27850, "ĠTrem": 31103, "Ġdrummer": 21145, "ĠPeb": 46458, "Unt": 47402, "ĠByrne": 19788, "ĠHare": 33188, "restling": 40719, "LOAD": 27822, "Ġspecifies": 42042, "Ġcounts": 3948, "ĠMarketable": 49182, "Ġbridges": 11879, "Ġore": 9717, "Ġpunches": 19594, "ĠPercentage": 34522, "ĠSpear": 37828, "liction": 38068, "453": 35261, "eworks": 43919, "Ġactivity": 1940, "Ġmeaningless": 27782, "Dub": 34007, "phys": 39409, "Ġmagically": 39408, "ĠThursday": 296, "Ġneuroscience": 38379, "Team": 20158, "Service": 32537, "ĠMadden": 23264, "ymph": 36935, "ificate": 43325, "ĠFee": 30745, "ĠProced": 47531, "Ġprominently": 26584, "oso": 18865, "Compared": 44891, "weapons": 43507, "=(": 49487, "ĠCPI": 19944, "ĠDistribution": 20344, "ĠActiv": 18953, "Ġeleven": 19353, "Ġunderstandable": 19717, "mint": 30732, "Ġdismiss": 11390, "ĠCarol": 9347, "Ġchemical": 4747, "phe": 42464, "Ġnuisance": 26575, "Introdu": 47032, "Ġextraction": 23226, "Ġwill": 40, "Ġpopulace": 36921, "ansion": 40787, "ĠOv": 28804, "414": 35980, "aration": 36466, "Ġedge": 3543, "Ġmagnetic": 17512, "Ġpsych": 21968, "Ġpushing": 3784, "Ġapps": 3798, "Ġ96": 8971, "ĠAff": 11176, "Car": 9518, "ĠHath": 20880, "Ġweather": 1650, "ogen": 11575, "EXT": 42680, "ĠCan": 2615, "Ġdisposed": 29616, "sequent": 39022, "Ġcelebrity": 6794, "Ġroadside": 22493, "ĠBirds": 25724, "Ġexotic": 19265, "Ġ213": 29049, "Ġdives": 33201, "Ġbreadth": 24135, "Ġretribution": 34624, "Ġreclaim": 20507, "ĠJem": 26614, "Ġ432": 40870, "charged": 18716, "Ġfilms": 3541, "Ġelder": 15172, "ĠTanner": 20504, "Ġspo": 25222, "Ġstripping": 28546, "ĠCertain": 25122, "ĠNUM": 34300, "ĠNON": 41572, "Ġabundance": 18225, "395": 31330, "YS": 14780, "Ġlurking": 31742, "Ġabandoning": 23625, "Ġinquire": 36124, "ĠNotably": 26131, "unt": 5973, "Ġdinosaurs": 29171, "Ġassume": 6876, "Ġrecapt": 24498, "128": 21540, "Ġconstructor": 47073, "isance": 42554, "ĠSor": 14405, "Ġsacred": 16996, "......": 43796, "avascript": 49787, "çĶ": 47873, "ĠGuidelines": 36701, "eanor": 45972, "Ġwhistlebl": 46454, "Ġappraisal": 31837, "itional": 24176, "ĠWalls": 32692, "Within": 35469, "irst": 17698, "atech": 41072, "ĠNorthern": 2874, "Ġdemonstrates": 13905, "Ġcig": 47012, "Ġcomplex": 2632, "ĠColumb": 25670, "Ġclerks": 33948, "Parser": 49707, "emet": 44916, "ĠLoft": 27103, "ĠTrust": 3101, "illet": 39844, "Ġtrip": 1805, "ĠVladimir": 6546, "Ġrelatively": 3487, "Ġsharper": 29564, "ocamp": 48137, "ĠOtto": 23232, "ĠTaiwanese": 26295, "ĠLegisl": 32717, "Ġengineering": 4675, "Ġembro": 26370, "697": 38719, "Ġcomet": 34893, "Ġprovisional": 21571, "Ġelig": 46820, "ĠCB": 6933, "ĠHiggins": 19422, "ãĤ´": 49832, "Includes": 48100, "Ġsang": 11944, "Ġ4096": 48711, "cell": 7841, "Ġrecy": 28347, "Ġhashtag": 15493, "Ġcartels": 33036, "ĠJudges": 27896, "Ġcampus": 2894, "usional": 47614, "ĠRefer": 24551, "ĠTotal": 5480, "Ġdifferences": 5550, "ĠVar": 9676, "Ġwaivers": 18027, "Ġpoetry": 14665, "Ġtrendy": 24037, "Ġmultinational": 17043, "ITE": 12946, "Ġdeposition": 28808, "une": 4438, "ĠVIS": 36957, "Ġhistorians": 26893, "repair": 36427, "Ġships": 7446, "orce": 34260, "Ġdeparture": 5824, "icent": 27909, "Thanks": 22086, "idered": 21732, "592": 39642, "ĠNepal": 15377, "ikers": 24511, "Ġensl": 42408, "ĠMortal": 44762, "Ġrabid": 39660, "Ġquotations": 42727, "MAS": 32804, "runners": 22651, "Ġcontradictions": 37186, "thumbnails": 48978, "EStream": 50225, "Ġseparatists": 21244, "ĠVIDEOS": 21671, "ĠAsheville": 25608, "Ġbees": 19499, "ĠGraphic": 26237, "Ġ123": 17072, "Ġbri": 43329, "kj": 36085, "Ġskept": 42386, "00007": 46983, "ĠSelling": 23659, "ĠEve": 6716, "]'": 46117, "Ġhelpless": 22445, "Ġdolls": 28452, "Ġvault": 19362, "Ġreload": 33164, "Ġbackdrop": 11379, "ĠKy": 5959, "ĠSilicon": 10087, "ject": 21517, "Ġalready": 416, "Ġdrafts": 28233, "egg": 38299, "Ġtipping": 22737, "âĸĴ": 49824, "paper": 33331, "Ġdevices": 2110, "ĠHenry": 4858, "ĠAss": 6331, "abo": 21763, "Ġapes": 42518, "Ġ1997": 7528, "Ġcause": 1303, "Ġdiffers": 31381, "lot": 17508, "ĠSalon": 31941, "Sund": 45748, "Ġformatted": 46625, "Ġpuppies": 27116, "zx": 47109, "ĠPalestinians": 8345, "Ġheavyweight": 12835, "Ġfungus": 37933, "Address": 46486, "Ġ416": 34509, "Ġbrunch": 25003, "Ġarguments": 7576, "Ġpent": 8027, "celona": 33538, "Ros": 36354, "Ġref": 4885, "Ġmunicip": 40492, "iphany": 39880, "Ġbolt": 29211, "ĠReading": 4913, "GGGG": 49472, "ĠKS": 25721, "2019": 10626, "Ġwarmed": 28163, "masters": 34992, "ĠiPhone": 2733, "ĠEternal": 41876, "ien": 2495, "ttle": 43656, "Ġbuying": 2159, "bane": 34498, "é": 41907, "CH": 3764, "manac": 44569, "oche": 18339, "Ġquarter": 297, "Ġunbelievable": 14011, "Ġputs": 4650, "Ġlitter": 18473, "aunders": 47594, "Ġworkshops": 12120, "Ġreproduced": 30209, "reg": 4950, "Ġ364": 38930, "Ġmarrow": 33765, "thens": 47095, "Ġinsights": 8418, "Ġdeer": 12062, "ĠYards": 35161, "Ġapproaches": 8369, "Ġwra": 37515, "Ġeasing": 8673, "Ġattain": 23229, "ban": 7384, "Ġforged": 17695, "graph": 44143, "ĠDistribut": 26774, "ĠDaniels": 8542, "Ġsolitude": 41813, "gnu": 49022, "SEC": 21536, "ures": 4123, "ĠHunger": 27689, "ĠPSU": 38408, "VR": 13055, "Edge": 37054, "Ġspider": 29499, "Ġalpha": 32756, "ĠHash": 21653, "ĠRemember": 9427, "Ġmanuscript": 37048, "ĠMUCH": 42778, "Fly": 34896, "ĠLevin": 25519, "Ġthigh": 18781, "177": 28129, "Ġsteel": 3689, "Release": 45036, "yssey": 42317, "Ġhig": 46519, "Ġdonation": 7096, "ĠPCIe": 43680, "ossible": 31497, "ĠAward": 3683, "Ġconvention": 8825, "cence": 42808, "GBT": 47872, "ĠKorra": 49292, "ĠRel": 8136, "Ġev": 7630, "ÙĪ": 33866, "ĠAnthrop": 42725, "chool": 27085, "Ġrepetition": 37176, "Ġfirearm": 9823, "ymm": 46246, "ĠTobacco": 20246, "ĠPaladin": 47414, "Italian": 39251, "ĠAerial": 37550, "Rub": 40821, "Ġreflections": 36868, "ĠArchae": 34421, "ishop": 44517, "ilibrium": 47295, "Ġranged": 20047, "Ġded": 22761, "ĠRevolution": 13340, "ĠMethods": 42879, "ĠVM": 31244, "alid": 29849, "ĠGarage": 31584, "Ġfrowned": 41649, "Ġfunnel": 23662, "Ġcortex": 40715, "Ġprogress": 2017, "Ġditch": 16740, "ahl": 9791, "Ġinsurgency": 17352, "Ġpersonalized": 17159, "Last": 10285, "Ġunsatisf": 36010, "Ġmain": 1049, "Ġorganizations": 2665, "Ġwished": 14594, "Ġrefunds": 23025, "ĠMÃ©": 26617, "Ġrip": 15061, "Ġaccident": 3213, "Ġenjoyment": 26611, "ictional": 41247, "IF": 7025, "Ġpockets": 12189, "ĠMaw": 27990, "Ġhoped": 5207, "ĠBav": 22662, "Ġpolitely": 33615, "Brian": 28915, "Ġhandle": 3679, "Ġleaflets": 40659, "worms": 40799, "ĠBlake": 7177, "Ġarteries": 33847, "Ġassistants": 17385, "ĠBuilt": 22811, "Ġbut": 53, "Ġirrespective": 26670, "ĠOrn": 41859, "++": 42964, "Dark": 35268, "ernand": 41208, "Ġ1915": 36398, "Ġclears": 30733, "wal": 10163, "Ġmarquee": 23918, "Ġwoodland": 35773, "Ġtrucks": 5875, "Ġcircles": 13820, "netflix": 47273, "Â©": 14800, "Ġcomplement": 14364, "Ġheading": 3393, "Nature": 43984, "Ġgifted": 15956, "ĠChief": 1231, "Ġtoward": 1706, "rave": 15132, "ĠBrown": 1547, "Ġliquid": 6936, "ĠCW": 17660, "ĠHY": 38005, "Pal": 23166, "ĠFear": 18019, "ĠBarrel": 32859, "zu": 18372, "ĠSubscribe": 9907, "Ġinsects": 20289, "ĠSutton": 16815, "162": 29899, "Ġpint": 28143, "mith": 22357, "Girl": 36134, "Capital": 38632, "ĠProductions": 20350, "ĠThere": 345, "Ġraises": 7700, "bub": 39321, "rador": 45377, "ĠOpen": 2117, "ember": 22542, "Ġdeclined": 1981, "Ġoil": 681, "Ġsectors": 4723, "ĠBurton": 14042, "ĠManziel": 34051, "Ġneedy": 28166, "Ġwent": 439, "Ġbip": 38706, "inals": 17552, "component": 46362, "Los": 24485, "Ġisot": 40640, "Ġprosec": 47635, "Ġlegislation": 2309, "ĠWang": 9705, "Ġtoxins": 30015, "Ġ200": 1878, "oxy": 25456, "ĠWen": 19608, "Ġdire": 10697, "hao": 42678, "RI": 6934, "Ġencompasses": 27747, "aceutical": 18492, "ainment": 26741, "Ġgolf": 3524, "920": 29099, "Ġuniform": 8284, "Ġtaps": 26066, "Hist": 38657, "Reader": 46347, "Ġpowerfully": 38880, "Ġcamouflage": 32124, "Ġtickets": 3308, "Ġshri": 39573, "TER": 7831, "ĠVenus": 18168, "ĠSubstance": 37506, "Ġmafia": 32132, "ger": 2403, "allo": 24061, "ĠHag": 18800, "ACK": 14940, "Ġupkeep": 37609, "Tu": 40768, ">>\\": 50193, "illing": 7491, "ften": 34581, "Ġballots": 10527, "635": 38027, "Ġpoisoned": 27041, "Ġpoliceman": 20976, "izards": 39700, "ĠCameroon": 14781, "Ġdisorder": 8364, "ĠRep": 2825, "Ġrite": 41326, "ĠWesley": 16401, "ee": 1942, "Ġdisagrees": 30399, "fer": 6646, "rival": 27978, "ĠComics": 28018, "Ġwitness": 4562, "ohn": 17648, "Ġapart": 4102, "Ġ1956": 24649, "ĠJon": 4160, "Ġmetric": 14823, "ingers": 35997, "ĠSeen": 36490, "ĠPetty": 18867, "Ġmishand": 31451, "System": 36383, "Johnson": 31894, "ĠSTATS": 39375, "ĠChapman": 14017, "Ġ76": 5553, "Ġultraviolet": 41144, "ĠHeck": 26171, "ĠRagnarok": 39719, "ĠAlliance": 6035, "Ġdeserts": 38905, "ĠMahmoud": 23470, "Ġcarefully": 7015, "ĠBir": 13097, "ĠDating": 35968, "OCK": 13181, "ultan": 41181, "Ġtower": 9368, "change": 14035, "====": 48332, "Ġdeclares": 26460, "Ġunderscores": 25498, "Meat": 47298, "Ġsail": 18840, "Ġunmanned": 26946, "ĠWill": 2290, "appy": 31953, "entry": 12595, "rification": 34136, "GG": 24592, "Ġjam": 11914, "arily": 19048, "Fail": 48237, "igan": 6703, "uto": 11207, "peat": 45047, "Ġmanic": 27599, "ĠBet": 6525, "iddy": 25196, "Ġintimacy": 29598, "rontal": 49397, "Ġhorn": 21305, "NH": 28812, "ĠMI": 10931, "strong": 8355, "Ġbum": 29673, "ĠDwarf": 46664, "Ġappointed": 3873, "ĠEmmanuel": 8830, "Ġapprentice": 36952, "ĠPackage": 31948, "iquette": 45836, "ĠYan": 21114, "Ġpeanuts": 33678, "Ġconstituent": 31350, "idine": 40314, "ĠMemphis": 7995, "Ġbishops": 19929, "ĠFlower": 27381, "ĠDemonic": 49341, "may": 12488, "Ġadop": 25298, "Ġsorrow": 26130, "Ġeducate": 11427, "ĠEndurance": 41446, "ĠCafÃ©": 22450, "ĠMills": 9059, "ĠNasa": 35064, "Ġphysic": 49041, "Ġrich": 4066, "expl": 23242, "washing": 36230, "American": 4310, "Ġsimul": 44032, "Ġdigits": 15769, "ĠSOLD": 44490, "ORE": 7563, "balanced": 29683, "Ġrecomm": 37573, "Ġcompetitor": 11439, "Ġrealism": 35402, "Ġneedles": 25775, "Mike": 15827, "ĠPenny": 15965, "ĠDance": 11101, "Independent": 41900, "Ġlin": 24248, "una": 4989, "Ġtoughness": 28136, "Ġheterogeneity": 47788, "Ġaddressed": 4873, "cellence": 46716, "Ġextrater": 40595, "Ġframed": 18699, "Ġtitanium": 35216, "adel": 24451, "Ġholy": 15410, "Ġentails": 29865, "Ġpresum": 42314, "Ġdetailed": 4271, "ĠBarron": 20316, "Ġholistic": 23015, "ĠEbola": 12977, "sweet": 32588, "ort": 2723, "Ġpurported": 23290, "Ġappointing": 25877, "har": 4759, "ĠMexicans": 28957, "Ġnil": 38074, "Trump": 7565, "ĠBond": 7291, "ĠExpo": 17003, "ĠTe": 2941, "Ġvoluntary": 11659, "135": 18508, "Ġjun": 12802, "Class": 21527, "ĠLou": 9294, "spons": 32974, "Ġroles": 4502, "ories": 9023, "Ġitching": 35188, "ula": 5571, "heon": 37254, "956": 41632, "âĢ¦.\"": 46294, "Ġprevailed": 23164, "Ġlink": 3104, "ãĤŃ": 49587, "MIT": 36548, "Ġvandal": 24604, "ĠTournament": 7647, "Ġsmiled": 20185, "Ġentrenched": 24581, "Ġviolet": 43973, "ĠHew": 16251, "ĠFarage": 29393, "library": 31674, "Plugin": 49577, "Reloaded": 49718, "onga": 22230, "ĠBowser": 40820, "ĠAnnex": 40396, "Ġgovernance": 7166, "Av": 23389, "Jar": 44768, "Ġinnocuous": 38735, "Ġcomplexity": 13879, "ĠDu": 5620, "ĠRent": 18512, "ĠDeliver": 33092, "Source": 7061, "705": 35278, "Ġstains": 36626, "Ġxml": 49377, "Ġ1080": 21083, "Students": 29413, "Ġfledgling": 31301, "ĠShuttle": 39107, "Ġconsidering": 2811, "Ġdistinctions": 41517, "204": 27508, "ĠAlvarez": 15438, "Ġsailors": 21362, "Bon": 35994, "ĠAud": 11917, "ĠTowers": 26696, "spawn": 48197, "Ġthreatening": 5608, "Ġimplicated": 23316, "+(": 43988, "olis": 25628, "Ġspearheaded": 23498, "670": 34148, "Ġruthless": 25597, "erald": 26755, "ĠDHCP": 48551, "Ġii": 42661, "Ġ2010": 1824, "Ġbounce": 9952, "ried": 10382, "Ġmantra": 23157, "Ġjail": 2878, "Ġchest": 7050, "SL": 11160, "Ġshipping": 6738, "Ġmagic": 8375, "Ġunwittingly": 38275, "ĠVariety": 17064, "Ġcentrif": 40564, "QB": 30119, "Quite": 41738, "Ġsty": 42437, "Ġdefective": 31559, "ĠOsw": 38319, "utable": 41280, "nces": 47569, "mus": 13792, "ophers": 30482, "Ġcoupon": 22939, "Ġcharms": 40228, "hound": 29344, "Hey": 13368, "ĠAmateur": 25757, "ĠIslamist": 9954, "Ġ1953": 23443, "Ġanimated": 12847, "ĠGerr": 46466, "Ġsweaty": 37487, "riber": 44260, "Ġintu": 46569, "ĠPs": 36783, "changed": 37541, "utics": 10381, "Ġoperation": 2513, "ĠCommons": 10271, "ORN": 29242, "Ġglared": 47889, "ĠNRL": 18936, "ĠGhostbusters": 44393, "Ġtravelled": 11252, "Ġcalf": 16701, "Ġtails": 30177, "%%": 49318, "employ": 32198, "ĠManitoba": 14437, "umph": 39988, "ĠHL": 38690, "bars": 38493, "ĠAtmospheric": 30120, "Ġrugged": 21937, "ĠAcademic": 24242, "Ġemployed": 7460, "Ġsects": 45202, "enture": 20537, "É": 35423, "ĠLindsey": 12149, "Ġbubbles": 26054, "258": 26866, "Ġpreacher": 31506, "Ġversus": 4411, "ĠPrint": 6883, "resources": 40897, "Ġcompetitions": 9150, "ĠLang": 7883, "leave": 38457, "Ġclean": 2382, "Ġchart": 5966, "Ġprojecting": 20440, "Ġdressing": 10386, "Ġkindred": 44249, "Ġsteer": 16452, "Ġsuppressing": 38919, "Ġcompliant": 22624, "Long": 21001, "Ġcontra": 15441, "Ġinaug": 16601, "ĠFrenzy": 47461, "avia": 21866, "Ġaltitude": 22917, "ĠOmar": 11482, "Ġpie": 11637, "Ġcoal": 4051, "ĠMarvin": 18669, "Ġescalation": 18145, "umes": 19364, "Ġseismic": 23956, "campus": 28135, "Ġbub": 23792, "Ġlandowners": 26967, "Ġlowest": 3912, "Ġli": 16787, "Ġmaple": 27287, "antz": 25374, "Ġgenitals": 33079, "ĠRhode": 12374, "Ġabbrevi": 40993, "PLA": 43362, "Ġstudy": 892, "idious": 43964, "Ġplayback": 20083, "ĠPi": 13513, "enta": 16586, "ĠSPR": 25852, "croft": 26357, "iw": 10432, "Ġshirt": 6399, "ĠInnocent": 40797, "iosis": 38115, "ĠSAL": 22404, "ODY": 37588, "ĠWilliamson": 13506, "Ġphone": 1028, "ĠVault": 36773, "avis": 18045, "////////": 49283, "ĠChurchill": 16930, "Ġdiscovered": 2967, "Ġconnector": 34538, "anth": 16390, "prise": 22627, "ĠexternalTo": 50164, "Ġregretted": 27611, "Um": 42025, "ĠYugoslav": 43197, "Ġwithheld": 22292, "ĠTories": 20371, "tis": 42334, "Ġdocker": 48133, "ĠCass": 11710, "ĠVideo": 5338, "Gil": 38981, "actory": 27670, "ĠRove": 42145, "agic": 25725, "Ġcounterparts": 10428, "ĠKosovo": 20602, "ĠMexican": 4938, "Ġhard": 543, "owner": 14527, "Ġ237": 34288, "enton": 14492, "ĠYug": 46271, "Latest": 45409, "ĠÃľ": 31153, "mis": 21363, "ĠFurther": 7029, "Ġrapes": 29417, "Ġdisturbances": 34614, "grand": 11377, "ĠDefault": 35364, "Stack": 43274, "Ġsrc": 47215, "Ġqueues": 29803, "ĠOECD": 28560, "Ġgenres": 23409, "Ġundocumented": 13573, "Ġcoworkers": 32666, "Ġlosers": 19113, "ortium": 48629, "Ast": 39021, "ĠSUR": 31987, "ichick": 47790, "otions": 26859, "ĠVernon": 14571, "ĠStretch": 40303, "ĠisEnabled": 50074, "Ġmember": 919, "ographic": 25510, "fresh": 34794, "hh": 36646, "ryan": 29022, "ĠAssault": 27143, "ceptor": 45348, "ĠShotgun": 46239, "Ġweeks": 688, "information": 31480, "o": 139, "Knight": 44275, "ĠWeather": 5842, "Ġdarling": 30213, "isy": 26351, "Ġ177": 28664, "ancock": 47371, "bard": 34987, "dr": 10232, "ĠJan": 1133, "ĠParts": 21214, "Ġdiscovers": 28411, "uked": 38287, "Ġstimulation": 32277, "ĠSabbath": 37081, "ĠDevice": 29305, "rha": 48518, "Ġavailable": 577, "Ġcontrolling": 10568, "Ġtimeline": 10589, "ĠNikon": 29850, "Ġsubmarine": 20224, "005": 31866, "Ġfing": 36955, "ĠMassive": 33859, "ĠOfficer": 2817, "ĠPu": 10282, "VILLE": 9199, "intelligence": 29812, "ĠDharma": 44794, "igmatic": 48244, "ĠKurt": 12255, "ĠMarijuana": 25249, "Ġretali": 18570, "ĠHaiti": 17009, "Ġcens": 26489, "ĠAntar": 48120, "kie": 24831, "Ġseparately": 12712, "Ġwind": 2508, "Ġdoors": 4259, "Ġassisting": 13390, "ĠSomething": 13676, "Ġhands": 1420, "Ġheads": 3885, "Ġdesignated": 8034, "Ġantip": 37554, "Ġ,\"": 41066, "igion": 43617, "Ġey": 28699, "Ġvocabulary": 32644, "Ġcites": 20177, "Hour": 40215, "ĠComput": 34710, "ĠBills": 8991, "ĠReleased": 30939, "ĠAdvantage": 29113, "Ġabs": 15428, "heard": 42225, "needed": 14546, "etimes": 41265, "ĠSolid": 19324, "Ġsecretary": 2971, "ipal": 32483, "Ġ130": 8325, "ĠHed": 18414, "Ġ1938": 30775, "Ġ57": 4981, "Ġdecisions": 2390, "aser": 12425, "Ġsums": 18565, "Ġneo": 17863, "ĠEnlight": 47014, "Ġconsequ": 41593, "ĠVim": 41216, "Ġ{:": 49890, "Ġcorridor": 14106, "Ġdocuments": 2339, "idepress": 48346, "ective": 38089, "ove": 7067, "Ġ\"<": 49900, "ĠWheels": 28345, "Ġdetermination": 8964, "Ġwhose": 1060, "Ġtransistor": 45573, "heres": 29492, "uum": 36080, "Ġvul": 42643, "itives": 35143, "Ġlords": 42650, "Ġsalts": 41871, "ĠMoroccan": 27622, "oop": 18042, "ĠEmpress": 43485, "29": 2890, "ĠEmperor": 31918, "ideon": 48258, "border": 16720, "Ġbending": 33842, "ĠCASE": 39743, "UG": 13644, "Ġfriendly": 5192, "aded": 7560, "ĠFraud": 27853, "ĠFunny": 31906, "Ġpokemon": 49176, "Ġiconic": 5939, "Ġunve": 36685, "Ġpanic": 9810, "Ġdistortion": 36075, "washer": 34475, "ĠClifford": 20791, "Wide": 43755, "ć": 50115, "ĠSharia": 39812, "ĠJord": 18340, "231": 29949, "Ford": 36982, "Ġtherein": 35410, "317": 32072, "Ġelected": 2736, "ĠVas": 12599, "Ġmodest": 6473, "Ġmultiple": 1533, "Ġbusted": 26803, "etts": 22527, "<mask>": 50264, "Ġproviding": 1976, "Ġderivative": 30666, "Ġdrunken": 19835, "Ch": 4771, "ourgeois": 44841, "ĠLennon": 23563, "ĠCoco": 28646, "Ġfarming": 9698, "Ġhog": 25663, "ĠMas": 5822, "Ġmorals": 37937, "ombie": 42816, "Ġassurance": 15492, "dad": 27398, "Ġcrane": 28472, "ables": 6058, "Ġunf": 9515, "gado": 25880, "nants": 47448, "Thomas": 25089, "Ġiso": 47191, "Ġparental": 20536, "Ġoverwhelm": 36986, "625": 27786, "sten": 11681, "rane": 29026, "ifi": 16665, "Ġimply": 25696, "Neigh": 43942, "Ġseveral": 484, "Ġcommitting": 11389, "ASH": 13246, "ĠSp": 2064, "Ġfried": 16708, "Ġirresponsible": 21573, "onds": 25343, "Ġeradicate": 26813, "Ġinstalls": 41153, "ĠForbes": 11519, "DAY": 2774, "Ġ670": 38679, "Ġ1930": 15891, "Ġmisunder": 49965, "ĠCAD": 26853, "Ġserver": 10228, "Ġpassed": 1595, "$$": 42654, "Ġ388": 41109, "Ġmeasured": 9550, "ĠMagnum": 41277, "Ġcontemplation": 44072, "song": 17481, "Ġchemistry": 11877, "Ġtranslation": 19850, "Ġcushion": 18846, "development": 27013, "ĠStrawberry": 37076, "itcher": 36519, "||": 49085, "Ġclustered": 42208, "ĠMoose": 26147, "ĠRead": 1163, "ĠChes": 12819, "ù": 50101, "ĠCBD": 15715, "ĠÂł": 50143, "ĠASA": 36356, "ampions": 34459, "ĠMissions": 43322, "Ġbadly": 7340, "ĠPaulo": 15333, "ĠTwo": 1596, "ethnic": 38211, "Ġhim": 123, "running": 12364, "Ġpenn": 30081, "ĠPharmac": 43855, "ĠCubs": 7604, "Ġexamination": 9027, "Ġpolicymakers": 12875, "Ġsellers": 12649, "Central": 25674, "Ġproper": 4692, "TR": 6997, "ĠSilence": 33992, "Ġkid": 4607, "915": 38405, "ĠUnique": 34107, "Ġchromos": 47411, "ĠConsidering": 17861, "Ġleverage": 6270, "Ġhed": 17066, "32": 2881, "oving": 13871, "pection": 46497, "Ġmeet": 972, "¶ħ": 49726, "Ġmanifested": 38541, "axter": 45819, "Ġrock": 3152, "sighted": 35184, "ĠVID": 47542, "ä¸į": 48664, "Ġgoof": 40504, "Ġsuit": 3235, "HI": 15473, "have": 11990, "Yesterday": 31863, "emies": 26804, "Ġwheat": 10332, "Ġgraz": 36823, "ĠCharlie": 6127, "Ġins": 7540, "STDOUT": 50054, "ĠProceed": 23927, "](": 47620, "jar": 11978, "Ġevangelical": 26186, "formerly": 30520, "ĠCah": 21036, "redict": 39733, "P": 510, "riad": 43133, "repre": 46737, "ĠGraph": 20919, "ĠBrooks": 8072, "Ġtint": 32683, "olit": 20726, "Ġ399": 41279, "Ġsinners": 45228, "ĠJesus": 5772, "ĠDivinity": 46013, "rame": 38007, "Ġsensibilities": 39358, "Ġcommunist": 19884, "Ġforwarded": 25570, "ĠNish": 20486, "Ġ05": 15786, "iversity": 31104, "Ġ`": 22209, "Ġinto": 88, "Luke": 34899, "Ġhousing": 2004, "ĠABS": 27388, "Ġexhibit": 8483, "Ġcountdown": 28907, "bits": 32131, "fb": 36028, "Ġplayed": 702, "Senator": 36328, "ĠWinter": 5205, "clear": 18763, "418": 37182, "âĢĵâĢĵ": 41657, "ĠThrones": 13480, "ĠUh": 23129, "Ġburg": 18521, "ellow": 33796, "Ġmonog": 43907, "Ġtrailed": 13221, "ĠTrent": 10977, "Ġprofitable": 9361, "Eastern": 39229, "Ġunpopular": 16919, "Ġchurn": 18209, "ĠCentury": 9348, "Ġstars": 2690, "':": 13373, "apses": 42918, "Ġline": 516, "Ġconcess": 45315, "Ġteenager": 7044, "Ġlie": 6105, "ĠFaith": 14161, "Ġbackstage": 19925, "Ġreserved": 1875, "report": 7415, "Ġabsorbs": 41664, "Ġevict": 39369, "Ġcooperation": 4601, "Brien": 9814, "ĠDonna": 14997, "Ġmog": 23327, "ĠRI": 29570, "ll": 890, "Ġgarg": 40696, "Ġtrustees": 17464, "guns": 39428, "ĠHealth": 1309, "Ġpup": 30566, "ĠPASS": 38798, "ORTS": 25861, "ĠAlways": 14947, "Ġfingerprint": 15406, "ĠPower": 3029, "Ġdisruptions": 19534, "built": 16353, "ĠAU": 16778, "ĠMAY": 19105, "Ġ235": 27089, "ĠCheese": 25436, "agara": 45282, "Ġrepresentation": 8985, "UCK": 23806, "ĠTimeline": 41600, "agent": 23224, "Figure": 40683, "Ġeyebrows": 22229, "Ġiii": 46814, "rolling": 20640, "alo": 7747, "Ġ1917": 27732, "Ġfat": 5886, "Ġinternal": 3425, "ø": 50100, "ĠNoel": 16958, "ĠUkrainians": 40248, "Que": 31178, "Medical": 42024, "Ġfarm": 3380, "angelo": 30908, "ĠUPDATE": 24055, "aming": 9708, "Ġtoken": 19233, "sey": 4169, "umblr": 48220, "Ġfundamental": 6451, "agus": 29962, "Ġscientist": 9744, "ĠStrip": 12943, "Jere": 47647, "Ġnoon": 5996, "ĠNadu": 17732, "Ġneedless": 35088, "ĠProtesters": 22109, "alan": 17330, "illation": 34775, "ĠProgramming": 39538, "ĠNamed": 30436, "Ġinsign": 42381, "Ġimagery": 18662, "ocon": 33955, "Head": 28873, "387": 32498, "ĠClinical": 20868, "Ġballoons": 22475, "Ġfoo": 48769, "FM": 16523, "Ġunc": 16511, "ĠPrevention": 10693, "Ġtandem": 22384, "ĠSubject": 36994, "ĠLawson": 16074, "ĠCell": 13696, "Ġquestions": 1142, "Ġbribes": 19426, "Ġdenominations": 40476, "ĠEnergy": 2169, "Ġscroll": 25715, "Ġ2400": 40977, "Ġfidelity": 41128, "Ġfrail": 36225, "iping": 31401, "fd": 37379, "ĠAch": 23790, "ptroller": 27910, "alth": 29547, "pperc": 39609, "ern": 3281, "ĠBroken": 28660, "Ġbravery": 24895, "ĠH": 289, "Ġhandc": 42149, "wake": 40731, "Ġtransport": 4240, "Ġrational": 15699, "ĠDiscover": 25087, "Ġstyling": 23256, "Ġ00000000": 49524, "Ġorthodox": 41347, "ottage": 26167, "ĠCorpor": 26091, "046": 41409, "Ġideals": 22894, "Ġmeta": 32820, "Ġfavoring": 32372, "ĠPas": 11920, "Ġapproached": 5508, "Ġplumbing": 28104, "Ġsuperheroes": 32254, "ĠPatriots": 4314, "Ġstealing": 9460, "Ġ103": 13156, "Ġsegreg": 44211, "ĠGust": 21295, "Ġfavors": 20145, "ĠWorcester": 22963, "ĠRossi": 21873, "////////////////": 49296, "Ġspoken": 5826, "imet": 12965, "Â«": 45241, "059": 41873, "thel": 30157, "Ġrelig": 41232, "qus": 33399, "hattan": 45672, "Ã©r": 20765, "ĠMAT": 25899, "aders": 16434, "ucle": 40143, "Phones": 48083, "Ġmanaged": 2312, "ĠBasin": 15066, "Ġspecialize": 34937, "TOR": 18861, "Ġenemies": 11058, "ĠMISS": 31234, "Ġgithub": 49163, "ĠParker": 6224, "Deal": 43787, "Sure": 32541, "ĠGriffith": 16302, "ĠInvestment": 2830, "km": 7203, "Just": 6785, "Ġwom": 38085, "Ġwrestlers": 25078, "tones": 34693, "Ġcurse": 26020, "Ġbattled": 12248, "ĠRCMP": 10376, "Ġcameo": 26000, "atile": 36931, "Ġ\\(": 49279, "ĠVine": 15838, "Ġfastball": 20604, "extra": 30842, "Ġrenov": 21476, "ĠDumb": 37098, "Giving": 39173, "Ġdwar": 35535, "ĠVermont": 10487, "Ġpuls": 33463, "Ġ298": 37353, "opp": 10223, "astered": 34367, "Ã¸": 14562, "Ġprostitutes": 32856, "ĠDefinitive": 45906, "ĠCarson": 8742, "wb": 41161, "ãĥ³ãĤ¸": 49978, "ĠQt": 46603, "Ġthankfully": 27628, "ĠDia": 32238, "acial": 27015, "Ġrainbow": 20927, "Minecraft": 47950, "Ġsmoother": 31675, "olving": 21241, "CA": 4054, "279": 28854, "Ġfont": 28716, "ĠFather": 9510, "ĠQuestions": 18964, "otes": 17467, "ĠCull": 29169, "Ġtribunal": 16361, "Ġconclud": 49086, "Ġbacklog": 14846, "Ġelse": 1493, "Ġcomment": 1129, "Ġsurg": 37548, "Ġsmokers": 25494, "payers": 26259, "happy": 27333, "Ġfounded": 4790, "ucks": 19667, "Ġfurn": 31199, "products": 33119, "889": 40027, "igenous": 39695, "ĠMcKay": 21864, "ĠIII": 6395, "Ġweakened": 12434, "nv": 37594, "Cass": 40120, "ĠAthletics": 13429, "Ġstone": 7326, "rous": 21233, "etter": 24585, "ĠBelieve": 28305, "irted": 31137, "Ġ+/-": 44832, "Ġcommun": 16759, "ĠHispan": 47496, "Ġenrollment": 12510, "Ĵ": 10659, "ue": 1780, "ĠWan": 18015, "ĠYamaha": 25297, "Ġtin": 12899, "ITED": 33957, "ĠMap": 18247, "sth": 44668, "ihara": 40573, "razil": 46829, "emis": 41875, "Ġinteract": 10754, "Ġconn": 39277, "Ġconve": 26991, "Ġempire": 15167, "ĠImpl": 35712, "ĠâĶ": 46277, "Ġpetrol": 12309, "Ķ": 10674, "ĠMud": 20368, "ĠÂ§": 39207, "Ġantid": 45535, "ocused": 38787, "Germany": 24596, "ĠActs": 37219, "LINE": 28302, "Ġcaption": 3747, "Chem": 41302, "Ġengine": 3819, "aq": 18611, "IVER": 26994, "Ġvariance": 37832, "Ġforeigner": 39985, "ĠMonk": 26625, "ĠGeorgetown": 15226, "oliath": 39283, "su": 9228, "ĠFEMA": 19004, "Ġmol": 13200, "Ġ===": 47408, "ĠIdentified": 46821, "ology": 4383, "Russia": 15685, "Ġrumor": 22677, "Ġfluffy": 33564, "Ġcaregivers": 21650, "Ġrealise": 11197, "ocations": 29876, "holm": 27967, "Incre": 41084, "Ġaudi": 34621, "hide": 37265, "Ġimmediate": 3169, "Ġprotr": 40951, "ĠKO": 24721, "Ġcurrently": 855, "Salt": 44095, "RL": 17868, "Grab": 44692, "keyes": 18275, "Ġinformational": 31603, "Ġregimes": 25549, "Ġfootprint": 12217, "Ġpleaded": 4407, "ĠKlaus": 29134, "Ġ1902": 43289, "gence": 31829, "amber": 19383, "ĠBerk": 26042, "ution": 15175, "666": 34364, "Uber": 37562, "),\"": 13198, "ĠBooker": 14725, "Cele": 31431, "ĠSystems": 5778, "burst": 42342, "Grand": 27270, "Ġcrawled": 38475, "Ġexiled": 34430, "Ġtolerate": 17028, "skinned": 36981, "omet": 11174, "dll": 48962, "Ġmakers": 6644, "ãĥį": 49673, "BUG": 48905, "Ġreasons": 2188, "ĠSchool": 835, "rower": 40956, "abby": 35878, "Place": 41863, "ĠBai": 33155, "ĠHIM": 40930, "resp": 36217, "Ġdepos": 27649, "ĠArizona": 2605, "Ġillustration": 21276, "Ġoffensive": 2555, "Ġrejected": 3946, "ĠCapitals": 16220, "Ġpsychiatric": 20449, "Ġusb": 49030, "Ġobserving": 21981, "ĠSandwich": 36506, "ĠArmenian": 14411, "Ġresembled": 34304, "im": 757, "Ġregul": 40338, "IST": 11595, "fortune": 47600, "ĠChip": 11055, "Ġpopulous": 24347, "Ġupheld": 14817, "Double": 42380, "strings": 40563, "dp": 43923, "ĠMoore": 3404, "ORPG": 48102, "LV": 19996, "ON": 2191, "eas": 29358, "\":{\"": 14220, "aki": 7387, "ĠRespect": 33106, "ĠUri": 35034, "Num": 48184, "Ġplacement": 13133, "Ġapproach": 1548, "Notable": 48667, "Ġexhilar": 32749, "Ġmystic": 43834, "Ġlinguistic": 39608, "Ġaluminum": 9757, "Ġmembrane": 34194, "Ġ216": 26196, "lator": 44006, "Ġnone": 4146, "Ġtutorials": 38892, "Ġcorros": 40041, "Ġbulls": 21865, "Ġlun": 11728, "server": 33806, "020": 33783, "Ġrisky": 11788, "Ġreconstruct": 30254, "Ġconcedes": 37210, "Grey": 41164, "Ġperpetrator": 28821, "Ġprince": 13705, "trial": 30185, "ĠCurious": 39530, "ĠIB": 24998, "umann": 27371, "ĠEli": 13420, "Liverpool": 30760, "ĠStalin": 26507, "ĠMAP": 36890, "ĠEquality": 27943, "Ġvengeance": 35541, "Ġnever": 393, "ĠJason": 3262, "ĠDetention": 23527, "ĠVic": 13708, "eneg": 47920, "icidal": 42743, "Ġplastic": 4136, "Ġlatent": 42715, "ĠVAL": 27445, "ĠIo": 35107, "Ġinternally": 16985, "agle": 21851, "Ãº": 5874, "ĠMormons": 44389, "Skin": 45273, "ĠMaintenance": 29738, "ĠLakes": 10083, "Austin": 38150, "Wild": 30909, "Ġsystemic": 18029, "Ġtoggle": 23012, "Ġgreat": 372, "Building": 37500, "bis": 32272, "Ġabsurd": 16091, "oct": 32643, "Ġinconven": 41228, "ĠATL": 39721, "amas": 16711, "Ġhorrific": 12392, "IGH": 29878, "fields": 21346, "Instruct": 48493, "ÃĥÃĤÃĥÃĤÃĥÃĤÃĥÃĤ": 50081, "ĠKas": 10124, "Ġteaser": 19690, "is": 354, "Ġrushing": 6404, "Ġspill": 10923, "Ġaspirin": 39447, "Give": 31033, "ĠVERY": 39789, "Ġcomplained": 7311, "ĠVict": 41269, "Ġgracious": 32120, "ica": 2426, "Ġelusive": 21483, "Ġpracticable": 45130, "Ġopening": 1273, "izens": 38839, "Ġharshly": 33705, "Occ": 45549, "HCR": 41022, "Ġpercentages": 30839, "Ġawareness": 4199, "makes": 39082, "ĠChennai": 17494, "Ġtransparency": 7218, "08": 3669, "pn": 35857, "Ġcounterproductive": 36373, "Ġhapp": 48288, "Ġpumpkin": 20571, "Ġmomentarily": 38289, "Ġsprayed": 26998, "ĠâĤ¬": 4480, "ĠPatt": 15414, "Ġmechan": 38658, "Ġmetre": 24697, "ilantro": 37931, "Ġcoordin": 31481, "ĠChin": 17289, "Apr": 41872, "kn": 15204, "Roy": 20512, "ĠBie": 33541, "rine": 24339, "oad": 20657, "ĠWonders": 44744, "ĠDisplay": 17091, "Ġheartbeat": 28288, "ifting": 17274, "raham": 27092, "zens": 37016, "ĠBowie": 19597, "Ġwarranted": 24939, "ĠRhythm": 37673, "Ġcovenant": 35590, "berg": 2865, "kHz": 46858, "ĠPryor": 31406, "ploy": 27877, "ĠWisdom": 35883, "Ġber": 14719, "zees": 48716, "ĠClar": 18407, "kin": 4245, "bat": 12161, "GER": 31595, "ĠVersus": 44420, "ĠDil": 14205, "Ġplenty": 2710, "sorry": 39088, "Ġimports": 5058, "HHHH": 48049, "ĠSomalia": 12491, "ĠHA": 27842, "Ġdyed": 39744, "Ġnipple": 42490, "Ġ359": 40598, "ĠKernel": 47139, "ĠColonial": 26523, "AI": 15238, "Ġ100": 727, "Ġmotorists": 12100, "ĠAsgard": 45626, "bass": 34032, "Ġentirely": 4378, "Ġcrew": 3419, "ĠRelated": 3283, "Ġfortress": 38190, "ĠKL": 26544, "isters": 16729, "Ġcalculator": 37024, "spoken": 28306, "Ġgently": 18399, "jobs": 41207, "Ġsperm": 24663, "stead": 16118, "Rex": 39712, "Ġstripped": 12850, "Ġtransgress": 40661, "Ġunchanged": 9040, "Despite": 15243, "snap": 43189, "ĠISP": 39421, "Ġequip": 17996, "ĠâĢ¦": 1555, "Ġadditionally": 31151, "DB": 10842, "ĠMountain": 4743, "ĠCor": 2812, "Quote": 48065, "IVERS": 30530, "Ġwedge": 27288, "ĠPony": 36682, "edit": 45486, "FH": 43316, "cern": 38987, "Ġrotten": 34485, "ENSE": 39951, "Ġrejuven": 26439, "Days": 41077, "ĠNice": 16911, "374": 35208, "Ġdisappointment": 10208, "fficiency": 45326, "ĠSean": 4640, "ĠFirefly": 45060, "ellig": 37448, "developed": 28176, "torn": 25566, "ĠBlessed": 37824, "Ġconstant": 5891, "VII": 46031, "nl": 35760, "Ġtrig": 46681, "letter": 36419, "oeuv": 41308, "ĠWith": 590, "ig": 1023, "ĠPersonally": 30308, "let": 2716, "Ġdefinition": 8515, "ultz": 26226, "Syn": 46437, "Ġdisclose": 9263, "iterator": 49861, "ricular": 32127, "Ġha": 2489, "cakes": 33579, "develop": 34335, "ĠFINAL": 37431, "Ġstrange": 7782, "Ġreviews": 6173, "ĠMichigan": 2293, "ĠSergei": 15458, "Ġsponsoring": 25205, "ĠDiary": 40097, "aze": 10129, "Ġvideot": 32779, "Ġboasting": 24764, "vv": 43336, "ĠBerg": 15303, "Ġinsurrection": 44203, "ĠRB": 11191, "Ġsyll": 37201, "Ġlymph": 23496, "ĠMotion": 16950, "Ġliterature": 13144, "ĠTrees": 32073, "Ġerg": 35389, "Ġworker": 5015, "oyer": 21410, "ĠHealing": 35479, "Ġphony": 32107, "Ni": 37335, "blogs": 45848, "ĠBoard": 1785, "ĠMiranda": 16002, "ĠNIH": 38029, "ĠMcKin": 15606, "Ġspend": 1930, "Ġunsub": 26631, "ĠJulie": 9786, "ĠBrazilian": 6606, "Ġinhab": 42226, "Yo": 33543, "Ġpneumonia": 23665, "}:": 49701, "ĠLines": 17217, "Ġexecutes": 44076, "Ġfulf": 39527, "Ġshelf": 15263, "ĠJohn": 610, "Ġnationalists": 23002, "Ġlocality": 36642, "anky": 30451, "çĶŁ": 48998, "ĠTruck": 17162, "witch": 32984, "Nich": 41784, "Ġconcentrating": 28619, "Ġtree": 3907, "ĠLondon": 928, "Ġhopping": 36390, "Ġonly": 129, "ĠWays": 24049, "acho": 21110, "Say": 34673, "Ġselects": 38845, "Ġfacial": 11560, "mult": 42527, "Ġburned": 7685, "Ġthrone": 20007, "ĠFederal": 1853, "Ġguardian": 24413, "ĠHELP": 38439, "Ġinvari": 48375, "ĠAMA": 33614, "Ġsold": 1088, "istence": 41177, "Ġread": 1166, "Ġ!=": 49333, "Ġsurfaced": 12671, "ifter": 33211, "Ġproc": 17987, "ement": 6285, "ultural": 41176, "aphael": 47738, "Ġhandset": 17621, "Ġflung": 38841, "Ġgig": 10196, "Â¢": 18812, "Ġtranslucent": 42026, "ĠLit": 17124, "isk": 6812, "ĠButcher": 31922, "Ġsubscribed": 33339, "'>": 49836, "Chel": 47735, "Ġrift": 23708, "Ġrebuild": 9648, "ĠWiFi": 26784, "Ġripped": 12256, "Ġfortun": 48740, "ĠAlv": 42126, "Ġobserved": 6373, "Nation": 32873, "ĠDocument": 27246, "Ġsolo": 5540, "Ġremnants": 27219, "frey": 16127, "ĠGaz": 15119, "ped": 9700, "ĠOsama": 32731, "ĠiPhones": 14825, "ordinate": 35930, "ĠDEL": 16286, "ĠElves": 47548, "ĠChun": 28518, "ney": 2596, "ably": 4735, "Ġvibr": 31495, "orus": 27741, "Ġaccus": 23123, "ĠDU": 21007, "678": 37628, "Ġmaritime": 15265, "Ġredevelopment": 19396, "Ġdict": 28700, "ĠHa": 4936, "Ġorcs": 48401, "Ġexhaustion": 30567, "Ġevent": 515, "Ġnarrow": 6787, "Ġaccelerating": 17604, "Ġresolutions": 13781, "Assistant": 46184, "Ġcompetitors": 6117, "upiter": 47425, "ĠDUP": 22598, "Ġconceptions": 47245, "ĠLEGO": 35509, "ĠBrussels": 6497, "ĠOps": 38209, "Ġslic": 46146, "Ġhalls": 17236, "ropri": 26049, "ĠHumane": 21807, "ĠClan": 39849, "ĠArabs": 29798, "Ġblogging": 37744, "Ġbailout": 11103, "017": 35142, "Getting": 28750, "Reviewed": 49408, "pour": 30534, "aria": 8954, "Ġslap": 17605, "Ġutil": 14258, "Ġdeny": 7631, "ĠPlugin": 48380, "Ġtidal": 34214, "asonry": 42687, "Quantity": 49457, "ĠTaken": 32032, "ondo": 11168, "Different": 44863, "89": 5046, "Ġregimen": 30174, "Ġequ": 4065, "Ġcorrid": 48649, "Ġcarbohydrates": 34215, "ĠAnch": 29860, "Ġwarm": 3279, "Ġvandalism": 21132, "Ġplants": 3451, "Ġcold": 2569, "Ġrestraining": 17817, "eting": 16382, "Ġrefine": 30924, "Ġfriend": 1441, "Ġstrives": 30761, "vm": 38486, "Ġpid": 46616, "Ġfamiliar": 2950, "Ġmigrate": 29682, "Ġplaintiffs": 14334, "ãĤ¸": 49064, "ĠWay": 4846, "ĠDES": 24566, "ĠSavior": 40910, "Ġregion": 976, "Ġregistry": 22976, "ĠHimal": 28374, "on": 261, "bur": 10734, "write": 29631, "Ġsupplemental": 27634, "Ġpotential": 801, "Ġ1907": 42262, "computer": 36327, ".(": 21154, "Ġventures": 16186, "Col": 18551, "atellite": 43089, "weights": 23884, "Ġreceptor": 33915, "Ġdismissal": 14289, "ĠPhilly": 19077, "ĠErnst": 22932, "Ġsafely": 7385, "ĠWhit": 7559, "rito": 24913, "Ġped": 16954, "ĠSCHOOL": 32133, "ĠOverview": 15184, "NO": 13449, "Ġcp": 46247, "Ġforge": 21733, "li": 3572, "ĠKirin": 40388, "Ġvil": 29571, "Ġtwelve": 11971, "ĠPanasonic": 24718, "Ġformula": 9288, "Ġslander": 39455, "ĠPython": 31886, "Miami": 26048, "Ġmoderate": 7212, "Ġposs": 28001, "age": 1580, "Ġpoorer": 22555, "ĠCorbyn": 10113, "Ġbooking": 12666, "ĠSo": 407, "too": 15605, "imilar": 36692, "Ġital": 45981, "dos": 19202, "ĠAware": 42783, "ÑĤ": 35555, "ĠDist": 11281, "oral": 15010, "images": 39472, "Ġsett": 34491, "Oak": 36043, "cles": 20639, "Ġstats": 13076, "Ġderegulation": 34950, "ĠAdult": 20395, "ĠChildren": 4278, "Ġheroism": 38047, "Ġfaiths": 34332, "âĪĴ": 47677, "LAB": 44435, "ĠSaras": 25084, "asers": 22476, "ĠRegistered": 32790, "ĠFren": 41174, "ĠPrix": 11761, "ĠRebell": 47045, "ĠPaint": 28134, "ĠMM": 24537, "Ġplots": 21258, "ĠAge": 8927, "Alright": 45636, "Ġmathematician": 43027, "block": 16776, "Ġlesbian": 21427, "Ġprotector": 32747, "Ġstamp": 13236, "Ġpunishing": 23477, "Î³": 48381, "ickers": 23601, "Ġsetups": 42810, "Ġdiver": 13105, "Ġba": 17279, "Ġ504": 37311, "ountain": 38035, "ĠPri": 9522, "ĠMurd": 28109, "Ġsometime": 11133, "Ġbrawl": 23928, "ĠLady": 4645, "Ġideas": 2956, "operative": 23655, "ĠCent": 7838, "Ġcharming": 18452, "ĠDenise": 18869, "ĠMost": 1993, "Lenin": 47458, "ONE": 16646, "Ġscaling": 22187, "stat": 24344, "ĠConscious": 44387, "Ġplausible": 27099, "ousy": 47482, "tip": 39080, "ĠFresh": 9602, "ĠSith": 33922, "coon": 21705, "cost": 10111, "ĠMohammed": 6963, "Ġlunar": 21641, "Ġcaps": 9686, "ipped": 8246, "Ġshameless": 36778, "ĠChaos": 38122, "ĠSle": 27132, "Ġdemonstr": 30673, "Ġencounters": 15798, "Ġundert": 26438, "ĠAy": 5847, "ĠCabinet": 7062, "phthal": 31835, "Ġlooming": 14012, "Ġcues": 25072, "ogenesis": 43333, "eri": 16367, "ĠGlow": 38365, "Ġroads": 3197, "ĠLH": 40309, "ĠTerror": 23877, "DW": 39751, "ĠCipher": 47450, "028": 40709, "ĠNolan": 15486, "ĠBarbie": 31304, "Ġshortened": 30288, "enstein": 27574, "ĠLia": 27162, "ĠHo": 5082, "Ġmort": 18631, "ĠInstitute": 2534, "Ġtrou": 21183, "ĠOFF": 21097, "Ġsleeves": 21764, "cue": 35249, "Ġlam": 24160, "Ġhadn": 5844, "ĠHaz": 14581, "pect": 13771, "Ġjokes": 11248, "Ġgoblin": 48309, "ĠUltr": 36081, "ĠBeverly": 13130, "ĠCavern": 45842, "Ġtides": 33154, "Ġvacancy": 20713, "Ġseals": 28707, "ĠShack": 30101, "omatic": 29177, "ĠMasters": 8755, "entials": 40288, "bank": 5760, "Ġrookie": 4534, "Ġdispose": 26178, "ĠWinnipeg": 10123, "Hot": 27735, "Supporters": 45585, "Ġracism": 8222, "Ġconstruct": 12558, "Mach": 45971, "ĠMIS": 39697, "Ġsuffers": 16061, "Ġwhales": 18018, "Ġimperfect": 27676, "swick": 44479, "fc": 25484, "Barn": 41299, "ggles": 43312, "Ġcommunists": 41633, "533": 38037, "Ġoven": 12941, "72": 4956, "Ġdisgusting": 21096, "ĠPing": 27161, "Ġpros": 15501, "owntown": 42177, "Ġanomalies": 36071, "Ġnorms": 14513, "#$": 49255, "Ġushered": 30155, "ĠEthiopian": 24128, "instance": 48768, "ĠWord": 15690, "ĠBashar": 13524, "Norm": 46333, "Ġplugged": 30251, "Ġincluded": 1165, "ĠSnowden": 23339, "Ġwholly": 16123, "Ġglam": 16545, "gey": 13817, "pause": 44970, "Ġinstincts": 24467, "olithic": 36941, "Ġbother": 15304, "Ġcountless": 10807, "cle": 16008, "Ġoutpost": 32147, "Ġns": 48286, "ackets": 47864, "Ġbliss": 30299, "ĠShared": 38559, "ĠPATH": 43627, "atar": 18416, "place": 6406, "ĠBoulder": 18874, "ĠPepe": 35711, "remlin": 42062, "ĠPosts": 23227, "Ġfucked": 42647, "Ġencourage": 3803, "Ġsanctions": 2637, "Express": 21682, "AX": 26624, "ibel": 31477, "Ġpossesses": 28011, "Ġundersc": 18010, "Ġsimplified": 30082, "Ġridiculous": 10861, "Ġhors": 31690, "Ġforg": 31928, "âĸ¬âĸ¬": 49748, "Like": 13721, "ratom": 44120, "Marg": 40420, "Ġgrasp": 17555, "Ġformulas": 37130, "Ġsecondly": 36013, "ĠAccording": 767, "Ġundone": 33820, "Ġ352": 39350, "Ġsuffice": 37850, "ĠPuzzles": 48383, "iano": 5472, "Ġautomakers": 15422, "ĠPatients": 21755, "erv": 8649, "ĠCalais": 36295, "Ġincumbent": 9861, "Ġtransmitted": 20579, "Ġlatitude": 36961, "XM": 30440, "Ġpinch": 15168, "farm": 19779, "ĠPav": 20199, "Ġcontaminants": 36888, "grim": 44592, "ĠJew": 16495, "ĠAleppo": 16606, "ĠMetro": 5768, "ins": 1344, "ĠSno": 29952, "Fixed": 48176, "Ġincarnation": 36396, "ĠElf": 32077, "ĠÎ¼g": 48577, "Ġsweetness": 35362, "MED": 32653, "Ġunstable": 21541, "ed": 196, "ĠLime": 30466, "aun": 7381, "Ġmistrust": 34873, "Ġvegan": 15848, "na": 2133, "Ġpersecuted": 33338, "ĠDaily": 1681, "Ġsuperficial": 34501, "Ġfrequencies": 32407, "Ġruined": 19750, "Ġfeel": 619, "rils": 43677, "Ġforwarding": 41787, "coni": 24392, "Ĉ": 50116, "mund": 34140, "Ġinnoc": 40374, "ĠPvP": 47026, "oreAndOnline": 50226, "ãĥ¡": 49578, "Ġdamned": 37689, "1964": 45629, "adder": 41027, "Ġsucc": 25047, "ĠLite": 25191, "ĠDj": 8743, "Ġdeficient": 38396, "Ġembryonic": 43982, "Ġbounty": 30481, "Looking": 17629, "Ġexclude": 18717, "Ġvanishing": 41704, "Ġworks": 1364, "aspx": 40428, "Ġboolean": 49378, "799": 33333, "Roaming": 49114, "nesty": 45154, "driving": 10241, "))))": 49639, "ĠPreferences": 45976, "gaming": 43129, "ĠEnter": 4789, "Steel": 41297, "anke": 23578, "ĠCPS": 24809, "ĠEt": 8923, "Ġpolicemen": 17431, "airs": 18022, "Ġ254": 35381, "Ġfr": 6664, "ĠColossus": 45300, "lene": 24398, "gb": 19562, "Ġsatellites": 16350, "Â´": 9900, "Ġstrained": 15718, "sufficient": 33703, "ĠKlan": 27590, "ac": 1043, "Ġdozens": 4295, "Ġinscription": 41980, "ĠConclusion": 23518, "ĠBluetooth": 13217, "Ġmembership": 6332, "Ġdefinitively": 35144, "Ġash": 14016, "ĠSatanic": 44881, "Beg": 46915, "Ġmeas": 40540, "Users": 46110, "ĠMord": 32889, "ails": 11791, "Ġcompar": 36601, "atio": 42623, "aqu": 25930, "Ġming": 35388, "ĠVehicles": 23881, "Ġloc": 18327, "Ping": 47709, "Ġwelfare": 6642, "ĠSJ": 30850, "cake": 31818, "Ġaim": 4374, "ĠSpecies": 33797, "Option": 46550, "ĠRHP": 8721, "intestinal": 46860, "Ġpermission": 5537, "Ġstern": 23427, "ew": 2753, "Feed": 37464, "spr": 34069, "--------------------------------------------------------": 49599, "ware": 10680, "ĠScope": 30108, "Ġdrastically": 17811, "OV": 13565, "ĠReese": 16727, "ery": 4270, "bytes": 46823, "etermin": 39938, "Ġ118": 16970, "Ġheav": 42287, "ighting": 31686, "Ġwrites": 5789, "ivered": 35158, "Ġcatast": 40047, "Ġcat": 4758, "ĠMaker": 27253, "flash": 39837, "Ġresultant": 41474, "ET": 3935, "Ġabruptly": 18489, "ĠReporter": 9989, "265": 26330, "ĠShelter": 21988, "Ġmillionaires": 36826, "Ġappropriately": 16574, "gue": 28338, "device": 42005, "ĠSpanish": 3453, "ĠInteg": 29257, "-": 12, "Ġgrooming": 26925, "folios": 47039, "ĠUnlike": 8280, "Ġaffiliated": 13778, "aves": 9419, "ĠYosemite": 29368, "Ġcovari": 49033, "ĠCig": 38906, "Ġthrust": 17590, "eport": 24964, "Ġaltering": 30341, "''.": 41667, "Ġallocations": 28823, "necessary": 37798, "Plus": 27576, "ĠDun": 6367, "oil": 14189, "ste": 6526, "Ġglowing": 22285, "Ġdesperation": 24278, "Ġphysiology": 41966, "Ġsalient": 41159, "ASON": 31705, "ĠMcCartney": 23823, "Ġawkward": 11789, "Ġtravel": 1504, "usb": 47358, "Ġmasters": 22337, "ername": 48285, "Ġcontagious": 27432, "ĠCompos": 35742, "wh": 11613, "Dean": 42862, "ĠFS": 21218, "ĠCrist": 8767, "ĠGiov": 33829, "ĠOman": 18302, "Ġengraved": 38556, "çĭ": 49534, "style": 5827, "hole": 11616, "ĠGrad": 24257, "template": 48790, "AMP": 20014, "Ġcommented": 7181, "Rain": 23074, "minecraft": 49773, "Ġrenown": 45098, "Ġpelvic": 38346, "Ġcalculates": 38570, "osate": 47357, "mbudsman": 24565, "Ġ(+": 16998, "Õ": 42088, "Ġscreened": 19756, "isson": 19140, "Ġactively": 7313, "Ġ=": 5457, "Ġcase": 403, "Ġshoes": 5582, "Canadian": 24819, "Ġincident": 1160, "ĠSolar": 11400, "Ġextremely": 2778, "ĠEight": 10099, "cler": 39255, "Ġillustrated": 22827, "ĠMay": 392, "Ġatmospheric": 24486, "ĠBangalore": 20071, "Is": 6209, "ĠInquiry": 29760, "rings": 19706, "ĠGlenn": 8583, "Ġfram": 41527, "Ġexceeds": 23984, "ĠCash": 7871, "Ġoz": 21388, "Ġchallenges": 2019, "Ġassailant": 29095, "175": 16925, "Chart": 25136, "Ġdistractions": 26434, "learn": 38229, "ith": 3432, "Ġnormally": 6329, "Ġtrout": 26136, "Ġbirths": 26906, "Ġburn": 7403, "Climate": 40466, "adding": 30547, "actus": 33028, "Ġresides": 26327, "ĠMang": 12756, "Ġteaspoon": 21161, "itles": 46913, "ĠVector": 40419, "Ġcosmetic": 22411, "Ġdiagnose": 29263, "Ġreturns": 2886, "Ġeasy": 1365, "Definition": 47926, "áµ": 48918, "orrect": 42892, "Ġsusceptible": 21471, "Dig": 42501, "ĠFei": 46262, "Update": 39962, "Ġenshr": 29376, "Ġsticking": 11752, "ĠResist": 43184, "Ġheadache": 19344, "Ġmalice": 39625, "Ġdirect": 2228, "Ġlev": 23035, "rite": 36500, "Ġimpro": 44354, "expected": 10162, "responsible": 37581, "personal": 26892, "ĠAwakens": 34833, "it": 405, "Ġassistance": 3485, "Ġdiscount": 6720, "Ġpresent": 1455, "MB": 8651, "Ġrouter": 30577, "608": 36874, "ĠClassical": 39641, "ant": 927, "Ġincoming": 11433, "Ġseized": 5942, "atem": 43371, "Ġspine": 20625, "Ġencountered": 13590, "ENDED": 44456, "Ġy": 1423, "ĠChampionships": 8641, "ĠAtkinson": 22553, "Ġmeshes": 47163, "Ġcrumbling": 27588, "ĠVag": 38840, "ĠIndividual": 22366, "Ġindicates": 8711, "NS": 6949, "ĠFirstly": 30800, "ĠResults": 12499, "ĠSolomon": 17455, "ĠKabul": 15767, "Ġgray": 12339, "AMA": 19455, "Ġsnail": 40961, "ĠMuch": 7840, "ĠLisa": 5769, "Ġcontention": 12007, "Ġabsentee": 25066, "Ġtweeting": 15096, "Notice": 47077, "ĠPall": 18612, "Ġprevious": 986, "thia": 43558, "Represent": 28588, "ĠConsequently": 25613, "Ġdesk": 8429, "Ġhomeowner": 19502, "rible": 24786, "ĠRemoved": 46975, "\"/>": 49784, "gold": 16472, "Ġom": 16780, "ĠImproved": 35570, "Ġbox": 2233, "ĠOf": 1525, "ĠGaza": 7914, "Dat": 43703, "Ġsubsc": 48333, "akable": 30363, "ĠPCs": 21535, "Ġheat": 2859, "TX": 30200, "alities": 29356, "drivers": 44525, "ĠItem": 39870, "ĠParam": 34559, "onut": 46371, "gged": 35546, "Ġdominion": 46430, "ĠPound": 26985, "Ġmonarch": 20303, "ĠEb": 12608, "nd": 1187, "Furthermore": 42395, "ĠBegins": 43050, "Ġcoat": 9540, "ĠCommittee": 1674, "Ġjustification": 20727, "xit": 37845, "ĠIan": 5965, "PN": 21824, "679": 38770, "broad": 32990, "wcs": 49211, "ĠChau": 27619, "gpu": 49375, "KC": 32428, "created": 27367, "Ġ802": 31551, "vere": 12081, "prime": 28752, "ĠRandomRedditorWithNo": 50198, "Pad": 28874, "uro": 7367, "Failure": 45723, "ostic": 31831, "689": 38349, "Ġheck": 17835, "Ġborne": 26531, "Â£": 29254, "Ġintersect": 31654, "ĠCasual": 32737, "Ġearlier": 656, "Ġguarded": 25853, "Ġbiomedical": 35241, "Ġinstructions": 9223, "ĠMercer": 20563, "Ġapplicable": 10404, "Ġboats": 8934, "ĠAshley": 7558, "ĠBas": 7093, "ĠSexy": 41582, "Ġyoungest": 8733, "Ġfamilies": 1232, "Ġorders": 3365, "ĠDrugs": 21731, "buster": 36543, "traumatic": 30865, "Ġmighty": 23514, "ĠPressure": 26324, "Ġcele": 20661, "OND": 7054, "adjust": 42009, "Clean": 40827, "TB": 16566, "Ġunthinkable": 29824, "Ġrampage": 22944, "ĠGPUs": 37658, "Ġhonest": 5322, "ĠPassion": 35477, "Ġagriculture": 6300, "Ġrevoked": 19358, "Ġgiveaways": 33486, "ĠPLoS": 47843, "Ġobtaining": 14999, "ĠKaepernick": 12542, "ĠRomans": 35008, "ĠLiberals": 12993, "MD": 12550, "Ġbrushing": 32669, "seller": 25577, "Ġagencies": 2244, "Ġexorc": 41824, "OT": 3293, "uded": 15432, "coins": 45335, "iat": 11284, "Ġsignifies": 39427, "Ġblocked": 4953, "Ġ220": 14576, "ĠWell": 2647, "ĠMister": 40972, "Ġants": 32855, "Ġwitches": 39699, "ĠFah": 21666, "vision": 14675, "Ġcavalry": 43339, "rawler": 44790, "hook": 33016, "Ġdexterity": 44575, "Ġdissolution": 34883, "ĠMass": 5370, "Ġgoat": 24791, "ester": 8939, "Ġbrewery": 19628, "Ġdisinformation": 30526, "Ġvisit": 825, "Ġdamn": 16490, "Ġscrolling": 33664, "ISC": 32953, "uri": 6151, "Ġviewpoints": 33498, "ĠHamilton": 4127, "Link": 17860, "Ġexclaim": 41683, "rients": 44067, "Ġwaved": 21017, "Ġinconvenience": 24109, "ĠNULL": 48955, "Ġschooling": 30211, "ĠTos": 17135, "bag": 14118, "Ġasbestos": 28962, "Ġretweet": 24352, "Ġreel": 29078, "adoes": 24263, "Ġvulnerabilities": 20715, "ĠFIL": 28392, "Ġ92": 8403, "Ġharvest": 12171, "Ġtax": 629, "ĠMillennials": 27836, "Results": 41981, "........................": 43353, ")\\": 49394, "ĠDick": 8639, "Ġbicy": 44821, "ĠPierre": 11300, "ĠWAS": 26817, "itized": 37174, "10000": 47303, "Ġrescuing": 32484, "Ġnumerical": 37920, "CAN": 31448, "ĠMurphy": 5682, "Ġmosques": 28245, "Att": 28062, "cised": 48843, "Ġbourgeois": 44980, "Ġstatewide": 10507, "rh": 20378, "ĠRem": 8022, "ĠDonald": 807, "ĠBoris": 14335, "IDENT": 29877, "Ġfalsely": 19349, "Ġdisproportion": 47289, "Ġbooths": 24312, "Gray": 44425, "110": 11670, "ĠBritann": 41267, "illions": 46575, "Ġhelmet": 13722, "pi": 19581, "since": 30117, "Ġsensory": 30008, "Ġanalys": 34273, "Ġmosa": 45811, "Provider": 48903, "ĠCongo": 11536, "ĠBud": 11504, "Turkish": 37300, "ĠPorsche": 15091, "à¥": 22919, "Ġpain": 2400, "ĠTR": 5758, "Ġmainstream": 7302, "Ġwhats": 45676, "CHQ": 43645, "uana": 30585, "ĠRae": 23013, "Hun": 38831, "Ġsewer": 17221, "Ġtouchdowns": 5020, "ĠBuccaneers": 18794, "Ġshuts": 34961, "ests": 10092, "ĠQuentin": 31062, "Ġunob": 40713, "Ġrabb": 40697, "ispers": 46190, "Ġrevived": 19096, "ĠGlacier": 34783, "ĠBis": 24325, "geoning": 45969, "Ġtransient": 35588, "ĠLuxem": 45557, "\"": 113, "VI": 15176, "utters": 44199, "Ġcompounded": 24094, "Ġecstatic": 30754, "ome": 4399, "Pe": 23029, "Ġ172": 28628, "inspired": 13028, "Ġcafeteria": 28538, "Ġjurisdiction": 10542, "ĠFILE": 9070, "Ġally": 7564, "Ġlifes": 30905, "Ġexchange": 2081, "Ġcorrectly": 12461, "Ġauctions": 20776, "Ġrid": 7495, "Ġterrible": 6587, "ĠOS": 8192, "Ġsnipp": 48888, "inus": 43263, "ĠElias": 20256, "Ġredemption": 21772, "ĠOcc": 30994, "ĠBannon": 10309, "Ġnort": 32354, "Ġ41": 3492, "ĠTWO": 34302, "Ġshocked": 6649, "Ã§": 3381, "Ġpairs": 15029, "ĠCoca": 16103, "eem": 33386, "ĠArgument": 45998, "Ġscanning": 24333, "ĠFX": 13175, "ĠCONC": 27105, "Mayor": 36652, "prisingly": 47607, "hak": 28832, "Ġecosystems": 24843, "ĠApostles": 45805, "Ġtide": 13260, "utils": 49320, "aber": 31810, "Ġpaternal": 38422, "mk": 43503, "ĠAcross": 15581, "ĠCapacity": 26422, "ĠWall": 2298, "Ġwarr": 49581, "Ġprotest": 2790, "image": 20094, "Ġ(*": 43305, "Ġmoving": 1375, "geist": 39994, "ĠUnlimited": 27985, "Ġoversized": 24901, "Ġgoalie": 12223, "ixture": 46368, "Ġnovelist": 29613, "Ġcultivated": 30668, "ĠAthens": 11198, "ologist": 6393, "links": 40822, "Ġcheaply": 34358, "Ġliteracy": 18218, "ĠMysterious": 45635, "Ġwillingness": 10640, "ŀ": 17772, "ĠGujarat": 13401, "Ġvendor": 13323, "going": 12891, "./": 21594, "Ġpreferential": 33343, "Ġont": 25099, "Ġone": 65, "Minimum": 47940, "osp": 16497, "Ġbaggage": 22235, "--------": 49198, "isco": 15069, "ĠFL": 8854, "Ġfleet": 7620, "rawn": 20881, "van": 9965, "Ġsparse": 28593, "ĠIR": 11594, "Ġonslaught": 25174, "ĠWhale": 34724, "Ġwinners": 4251, "ĠUz": 30554, "Ġseizure": 18587, "Trade": 35996, "ĠSuzanne": 24158, "Ġcomparative": 30590, "ĠOre": 13277, "###": 48134, "Ġrelationships": 4158, "Americans": 15085, "Ġseparated": 8254, "Hell": 38980, "ĠJack": 2722, "ĠTP": 31847, "Researchers": 40450, "ousing": 24644, "rawl": 33889, "NESS": 41422, "Flag": 46191, "iken": 22966, "220": 16846, "ĠCostume": 38124, "tin": 24276, "Ġmates": 18779, "rick": 7100, "ĠBaghdad": 16121, "Ġcapability": 9388, "DC": 5949, "ĠSakura": 46738, "ĠNotre": 10579, "Ġknowledge": 2655, "ĠFranken": 20370, "Ġpressured": 16842, "Ġinvitations": 30790, "Ġdescript": 47265, "Kim": 18806, "ĠRi": 16221, "ĠNightmare": 42438, "ĠFields": 15502, "Ġ302": 31773, "etti": 13238, "Ġenticing": 30841, "Ġgrams": 14080, "vers": 3697, "ĠGul": 12318, "Ġcipher": 47601, "ĠMig": 22709, "Character": 48116, "Ġinj": 30272, "Ġchoice": 2031, "%%%%": 50037, "Native": 45339, "ĠAssistance": 19418, "Rocket": 42913, "653": 38616, "ĠWhedon": 44638, "umbai": 26772, "Mrs": 36176, "lex": 14726, "Ġchapters": 22017, "ĠMama": 25742, "Ġfiasco": 33512, "Ġbeaut": 28651, "during": 37460, "Ġantigen": 44368, "ĠMDMA": 42614, "camp": 21669, "Ġwww": 1662, "Ġprovinces": 10453, "ectomy": 36291, "kee": 27408, "cest": 35678, "ĠSimple": 21375, "Choose": 45181, "vu": 33140, "DT": 23858, "Fort": 23565, "lining": 16526, "Ġleather": 9219, "ogical": 32481, "Ġfive": 292, "540": 31394, "Football": 28206, "source": 17747, "ilage": 40331, "oire": 41154, "eline": 7012, "DEF": 44438, "Gaza": 45903, "Ġholds": 3106, "ÂłÂłÂłÂłÂłÂłÂłÂłÂłÂłÂłÂłÂłÂłÂłÂł": 50208, "onymous": 31386, "ĠSECTION": 39274, "720": 29721, "ĠReno": 16614, "Ġunexpected": 7152, "Ġdetain": 25255, "Ġcran": 32900, "Credit": 19263, "ĠJail": 10509, "ĠeBay": 18595, "ĠCostco": 22711, "Ġadmissions": 18054, "ĠMIL": 21695, "Drag": 45608, "Saint": 41742, "ĠCiv": 37791, "opol": 34768, "ĠMourinho": 6260, "ĠJedi": 20980, "Request": 45589, "Async": 49636, "kell": 25723, "ENG": 25049, "ĠPf": 14475, "Ġforest": 6693, "Ġduly": 27069, "Ġwolves": 27365, "ĠDOS": 45988, "ĠChef": 13821, "string": 20951, "Ġnano": 36924, "Ġbuilder": 20528, "terness": 48699, "ĠCly": 30194, "anco": 22289, "ĠBoom": 29321, "Ġstructures": 6609, "Ġsplend": 45990, "Ġnurture": 29348, "Ġrepairing": 26643, "ĠTw": 9922, "ĠBarkley": 17002, "Ġpathogens": 35904, "Ġfortunes": 16927, "Ġliberals": 19561, "Ġgrapple": 32352, "Ġdreamed": 21990, "ĠPHOTO": 9912, "alist": 39295, "ĠUW": 19945, "Ġtac": 47800, "ĠLTE": 20066, "dust": 42910, "odka": 40677, "ĠDetective": 13924, "ĠSUN": 19042, "ĠTag": 12650, "audi": 44856, "Ġharvesting": 23820, "arations": 39519, "reck": 24598, "trump": 38060, "ĠQuebec": 7534, "ness": 1825, "ĠSaskatchewan": 11496, "ĠParkinson": 18475, "ĠLet": 2780, "Sem": 37504, "ouring": 15794, "nian": 29366, "ĠKepler": 31557, "Ġathletics": 16015, "ĠPell": 29755, "Ġaffirm": 31040, "ĠJob": 13576, "ĠHolocaust": 13903, "ĠMustang": 23103, "mask": 43776, "Ġdied": 962, "Ġjoins": 9447, "artment": 27699, "ĠLead": 14243, "«ĺ": 48894, "ĠNASCAR": 10591, "Ġwhites": 17942, "ĠPapers": 28735, "Ġexplaining": 8926, "Ġhorny": 46216, "ĠJudging": 34938, "Ġgratification": 37561, "Ġwalked": 3203, "Ġanticipating": 22535, "Lind": 38429, "PR": 4454, "ĠMoroc": 49356, "*/": 48835, "ĠSerious": 30828, "Ġprotective": 11775, "Ġanx": 27442, "Ġdistrust": 27948, "Ġsweat": 14711, "ĠMc": 1509, "ribed": 33273, "Ġcalls": 1519, "\".[": 49070, "artz": 32577, "Ġtrue": 1528, "Ġcurb": 9128, "ĠHirosh": 43271, "amm": 12614, "yrinth": 48924, "ĠMILL": 34299, "rahim": 38026, "Ġguild": 40901, "ĠGamergate": 48603, "kered": 20093, "Ġpenis": 25128, "onductor": 13017, "ĠBeam": 32538, "Ġ58": 4893, "Ġ244": 35533, "ĠRecorded": 42512, "Ġninth": 5127, "mph": 17055, "Ġsubstantial": 6143, "Ġinviting": 13869, "amation": 31936, "Dynamic": 47515, "iren": 23832, "Ġstrap": 26123, "Ġnomine": 49467, "Ġinitiating": 32086, "ĠFlames": 15700, "rien": 18364, "Ġtaunt": 44048, "ĠBalt": 33766, "Ġshipped": 12502, "Ġdecoration": 37364, "oms": 6806, "ĠIO": 38266, "ĠLiberty": 7616, "urers": 10368, "idding": 27346, "irled": 35413, "Ġ1976": 14488, "ĠMagn": 15683, "Ġstub": 35672, "Ġgo": 213, "Ġwhen": 77, "Event": 44879, "prom": 12501, "habi": 45220, "âĢĶâĢĶâĢĶâĢĶ": 43476, "Ġconverge": 36748, "ader": 7292, "ĠVick": 18889, "Python": 48659, "ĠData": 5423, "Ġ\"/": 48789, "Ġasset": 3440, "Ġsock": 37390, "Ġenclave": 24562, "ĠPOWER": 35417, "Ġalas": 40463, "753": 37475, "ĠKeeping": 15572, "Ġwors": 41089, "Ġbustling": 29019, "okÃ©": 48344, "Ġdwarf": 30794, "Ġsprite": 48374, "Ġfl": 2342, "Ġbroccoli": 34803, "getic": 46151, "Ġstink": 39628, "ĠNeither": 9081, "Ġinterviewer": 33242, "ĠIncre": 46595, "ĠAlexis": 11502, "Ġenz": 46538, "Ġshots": 2347, "Ġdeception": 29244, "ĠEND": 34588, "Ġfooled": 31952, "Ġcombating": 26100, "Ġcracking": 18345, "Ġtraps": 25583, "Cruz": 41747, "Ġsignificance": 11382, "GA": 4164, "287": 30928, "Ġtempt": 34919, "ĠRegulatory": 18193, "435": 33115, "ĠAmericans": 1791, "Ġstrive": 15407, "Ġthough": 600, "chair": 13599, "Ġdurability": 28327, "monton": 43323, "Ġconducts": 21616, "Ġmiscar": 40964, "gom": 44684, "Ġodd": 8372, "Lim": 44222, "ĠSample": 16269, "Final": 38083, "ĠElven": 49259, "ĠCere": 19832, "Ġabsorption": 33131, "oi": 12467, "Ġcons": 7407, "Ġsacrificing": 31017, "ĠFlying": 22014, "Ġsurrogate": 28247, "Extreme": 43239, "ĠTelevision": 10276, "Ġgraphs": 36386, "Ġunison": 38280, "ĠAdelaide": 13577, "Ġrepet": 41341, "ihilation": 46018, "ĠThief": 43088, "Ġstrings": 22052, "Ġintellig": 37806, "Ġpigs": 20385, "Ġsaline": 43991, "Ġincredibly": 5784, "natural": 25270, "Ġ):": 47075, "Ġrivers": 12323, "ĠSupplemental": 39821, "smoking": 37879, "ĠDD": 27932, "lde": 23966, "Â¨": 36348, "yl": 4360, "Ġstellar": 13641, "Ġfollowed": 1432, "Ġunavailable": 19216, "ĠHos": 16502, "ĠLibrary": 5672, "Ġearth": 6872, "xon": 43903, "Ġsynt": 45774, "ĠCrusher": 47844, "251": 32306, "Ġartifacts": 23150, "Ġoptimism": 9743, "ĠGray": 7274, "White": 15725, "TEXT": 49347, "Ġnos": 13736, "ĠOD": 20778, "zen": 7889, "Ġcustod": 22790, "Ġknows": 2215, "ollow": 40686, "Ġtrick": 7610, "Ġlex": 36912, "Ġlabeled": 16274, "Ġpiling": 27156, "Ġrains": 10863, "rehensive": 47900, "uous": 12685, "Ġsubtract": 40033, "ĠOm": 13292, "Nice": 41541, "Ã®": 14540, "Ġphenomen": 44941, "ĠYang": 13262, "asso": 21413, "Ġrelating": 8941, "aling": 8279, "Ġoccupy": 20189, "Consumer": 42909, "Ġ252": 34660, "Ġalert": 5439, "Ġdowntime": 32122, "Ġinvisible": 20731, "Ġtofu": 40376, "Ġabhor": 35350, "ĠBank": 788, "ĠScourge": 49150, "Ġshelves": 14169, "ĠCoy": 27767, "ĠFE": 16852, "Ġwhatever": 3046, "ilot": 20366, "its": 2629, "Question": 45641, "Ġspiral": 21300, "ĠFeast": 37072, "Ġaxe": 27729, "often": 34378, "ĠRig": 20330, "Ġinflicting": 36819, "Ġpuzzle": 18108, "Ġkin": 24438, "Fresh": 32540, "ĠPanzer": 46090, "know": 27066, "Ġlar": 42405, "roads": 14923, "ãĥĦ": 48369, "Ġdehyd": 36410, "Ġseamless": 19745, "Ġexpires": 17106, "ĠAncest": 42054, "numbered": 45017, "ĠLabyrinth": 46248, "Ġapologized": 11184, "Ġrelapse": 38387, "iom": 27074, "ĠPanama": 12276, "ĠCourage": 34119, "tom": 33063, "ĠSAR": 34565, "ĠEnhance": 42658, "opal": 25396, "ÙĴ": 48311, "Ġdisemb": 46801, "ĠOri": 32422, "then": 13040, "504": 36131, "pas": 28466, "Ġstated": 2305, "ĠHallow": 45020, "DERR": 49809, "ĠUtah": 4514, "ĠHorizons": 34352, "Ġauxiliary": 34590, "Ġentitle": 34180, "\"[": 48742, "ĠHard": 6206, "rar": 17254, "forced": 25258, "ided": 8598, "Ġsecurely": 31328, "ĠAssets": 20741, "Ġdescent": 19276, "xf": 45678, "oz": 3979, "ĠWhe": 22199, "ĠShar": 8261, "Ġcapitalize": 19274, "Ġintentional": 18797, "Ġedible": 27532, "Ġcomplicity": 35203, "Ġwhiff": 36850, "release": 27561, "Ġtransition": 3868, "Ġproblem": 936, "Ġphp": 46817, "Ġunderground": 9111, "ĠKonami": 46950, "Girls": 33722, "Ġprerequisite": 39364, "Ġimpaired": 15241, "Ġprot": 24892, "Ġfiling": 3386, "Armor": 47936, "Il": 13693, "Ġhow": 141, "ĠAlger": 28625, "éĥ": 48854, "473": 37887, "Ġasks": 6990, "571": 38173, "Ġpoison": 17712, "646": 33075, "aretz": 40781, "rown": 19649, "Ġè£ıè¦ļéĨĴ": 50159, "Ġbasic": 3280, "Ġnicer": 35735, "Ġmatching": 8150, ")].": 49151, "Ġsturdy": 28685, "ians": 2071, "Ġho": 9379, "Ġdiscovery": 6953, "Jay": 27918, "ivist": 35012, "\\-": 49731, "ĠNeo": 31176, "ake": 5113, "ĠReality": 21479, "Ġcollective": 6981, "idential": 32543, "Ġtoxin": 38977, "owe": 22034, "Ġ<[": 50161, "Ġ368": 42100, "Ġoxide": 30629, "ĠBounce": 44111, "Ġfans": 841, "issued": 17350, "Ġdependency": 31492, "Prosecut": 48410, "Ġchore": 14480, "Ġ113": 14881, "Ġne": 3087, "ĠConcord": 17994, "need": 30484, "Ġconsiders": 9857, "Ġsubstrate": 44017, "ĠDrug": 8006, "Ġrooted": 17213, "IFE": 40198, "Ġcontrovers": 39298, "Es": 15286, "xx": 29061, "Ġproperty": 1038, "rough": 10344, "Ġmathematics": 25634, "ĠCOURT": 33260, "Ġadulthood": 28473, "ĠFury": 15945, "Quest": 41862, "ĠPowder": 31889, "St": 5320, "capitalist": 45303, "peak": 37271, "Ġecological": 26176, "ĠTelecommunications": 31121, "Ġmotorcycles": 21027, "committee": 41328, "ucking": 24029, "ĠFraz": 36979, "ĠDorothy": 23260, "Ġhardened": 33631, "ĠAuditor": 16493, "ĠExplore": 19526, "Ġtruths": 30079, "Ġgrants": 7752, "ivated": 23907, "itle": 46398, "Ġtailored": 17719, "Ġnob": 45984, "ĠAssignment": 46091, "Ġhugging": 31164, "ĠCharlottesville": 11234, "their": 25017, "Error": 30192, "ĠHua": 30545, "Ġkne": 25619, "ĠCandy": 25575, "ĠLever": 20844, "Ġshattering": 37269, "Ġframe": 5120, "ĠHulk": 31318, "Depth": 45566, "ĠEas": 33357, "Stock": 16822, "neum": 45042, "Several": 29182, "icial": 23092, "emy": 27171, "Ġdrowned": 20923, "uddled": 23521, "grown": 20629, "querade": 45501, "MAR": 36659, "ĠWireless": 16613, "ĠMeat": 25263, "hemy": 47065, "Ġtumult": 42372, "ressing": 9828, "Ġpseudo": 38283, "sim": 13092, "Ġlob": 22362, "adas": 13920, "Ġconsolidation": 13581, "Hamilton": 31382, "ĠHong": 3523, "Ġimproper": 18418, "Ġq": 2231, "Ġloved": 2638, "__": 30529, "Ġdecay": 30512, "Ġseemed": 2551, "ĠAri": 6416, "reddits": 49607, "Ġprevention": 8555, "âĺħ": 45814, "ãĢı": 49839, "Ġdirection": 2698, "ĠRAND": 43015, "primary": 42205, "ĠRTX": 40810, "arella": 26771, "ĠCarry": 36241, "pora": 20523, "Ġspies": 27902, "Ġbour": 46924, "Ġsuppl": 38521, "Ġ428": 42829, "error": 44223, "ĠSergey": 23509, "IM": 3755, "ĠLiterature": 34247, "Ġtomorrow": 3859, "ĠGR": 8837, "azard": 38306, "xi": 30751, "Ġmural": 21281, "ĠStart": 2776, "Ġexploded": 13008, "Ġincredible": 3997, "Ġanarch": 45889, "NET": 13548, "Ġmoney": 418, "ĠSimulation": 44989, "ĠGibraltar": 23545, "UL": 6597, "Ġlike": 101, "organized": 29835, "Ġsec": 15636, "Ġclimb": 8264, "ĠCurtis": 11292, "Ġloosely": 29213, "Ġunimagin": 46046, "Ġfantasies": 35591, "Ġknife": 7023, "Ġendurance": 25160, "ongyang": 46125, "disciplinary": 32231, "iami": 40879, "Ġkills": 10469, "Ġfeeding": 10943, "ĠMeteor": 16582, "Ġledger": 33168, "ĠTrain": 15507, "ĠBag": 13379, "ĠText": 14159, "ĠPilgrim": 39921, "aja": 10737, "ĠLamp": 23418, "Ġthor": 43500, "Ġinterrogated": 37154, "cens": 44177, "funding": 29843, "Ġcomputation": 44042, "ĠElixir": 47308, "bsite": 46462, "Ġfade": 21378, "Ġhurd": 44028, "ĠFedEx": 17181, "Ġcloses": 14454, "increasing": 32313, "you": 6968, "NOTE": 46599, "Ġdisplaying": 18534, "Ġunfit": 29181, "ampton": 18576, "Ġtorn": 9007, "Ġup": 62, "Ġyogurt": 24351, "ĠProfessional": 12221, "Ġarthritis": 24527, "ĠLiqu": 26185, "Ġreconc": 43369, "Ġpessim": 36494, "ĠPegasus": 40257, "ĠLog": 9359, "ĠUniverse": 15384, "Ġ:=": 49614, "Ġpublisher": 10710, "Ex": 9089, "vas": 20670, "Ġcoax": 32698, "ĠMJ": 33936, "scill": 46003, "291": 33657, "ĠSyn": 16241, "Ġreduces": 13458, "aterasu": 49591, "ĠHoover": 18714, ">>>": 47457, "ĠITV": 10983, "}": 24303, "ĠDeborah": 18878, "ĠSatan": 33649, "Ġferment": 42894, "Ġ167": 28833, "199": 21118, "ĠAnat": 27151, "ĠKremlin": 9812, "ĠJessica": 7103, "ĠFin": 6513, "Ġess": 37214, "Ġspear": 21106, "ĠClock": 31806, "aptic": 47553, "Ġautopsy": 15103, "Ġtraject": 44179, "ĠMechanics": 39793, "ude": 6343, "Ġtoxic": 8422, "Ġinsure": 36702, "Ġaided": 19472, "Ġphilosoph": 44997, "umat": 28607, "ĠParish": 10961, "ĠNH": 18886, "uph": 44186, "Ġenactment": 39553, "ĠNaj": 13322, "ĠRestoration": 32569, "gal": 9487, "Ġisland": 2946, "Ġfailings": 31588, "Ġvend": 9194, "ĠWorm": 40800, "ĠTud": 28571, "ĠWiz": 32436, "ĠCorvette": 36276, "ĠBrady": 5333, "determination": 32962, "Ġnursery": 24121, "resents": 40826, "ferred": 36267, "ĠVerify": 47076, "ĠÂ§Â§": 48801, "Houston": 30128, "Ġlying": 6480, "Ġphr": 41473, "Ġtire": 12431, "Ġsomehow": 7421, "Ġmandatory": 8549, "Ġinforms": 22604, "Ġdates": 5461, "Ġsim": 16207, "Ġundue": 22315, "ictive": 37601, "Force": 36832, "Ġcompanions": 26470, "1900": 42442, "ĠNewman": 13614, "fficient": 43788, "Ġslapped": 18361, "Ġstitching": 39815, "ĠBaltic": 24532, "Guest": 45721, "Ġchallenging": 4087, "until": 29510, "Ġcoughing": 33169, "note": 32903, "Ġaccounted": 9521, "875": 29271, "Ġavoid": 1877, "ĠRyu": 35068, "SO": 14587, "ĠHH": 42339, "Ġyesterday": 2350, "Ġlapt": 48157, "Ġisn": 965, "Ġposterior": 41834, "ĠLeonardo": 20683, "Ġgown": 11436, "gae": 34211, "eeks": 30384, "ĠWH": 12707, "Ġattended": 2922, "Ġpedal": 26965, "Ġunknown": 4727, "ĠRazor": 33808, "Ġunmarried": 40191, "Ġlocate": 12982, "Ġhurry": 20607, "Ġpee": 32734, "Ġunsure": 17118, "ichael": 25554, "store": 8005, "Ġblows": 19250, "Ġbackup": 8010, "Ġagreement": 1288, "Ġwelcomes": 16795, "Ġflags": 9287, "Ġcrooked": 40771, "Ġpersistent": 13109, "ĠCommunities": 19818, "ĠChange": 7229, "ĠPowerShell": 47734, "Ġmanifestation": 36026, "ĠSpiegel": 29509, "vised": 25376, "1001": 45792, "ĠEsp": 11631, "Ġuprising": 18837, "way": 1970, "ĠLIST": 33513, "au": 1180, "ĠSupporters": 18730, "ĠJS": 40305, "Ġliable": 19145, "achine": 47480, "omever": 40612, "181": 30818, "Ġdecides": 11703, "Ġpopped": 16270, "Ġmarkedly": 32581, "aternal": 33305, "Nor": 29723, "ĠTouch": 14743, "Ġdescriptive": 42690, "Developer": 48129, "Ġinterview": 1194, "items": 46740, "Ġremind": 8736, "Ken": 28524, "Absolutely": 32523, "ĠFoster": 8436, "ulatory": 25911, ".}": 49463, "eph": 35699, "Ġchick": 30802, "Ġdragged": 10840, "bender": 40483, "ĠSmy": 23939, "ĠSections": 37028, "992": 40235, "OSP": 41713, "Ġdrills": 13553, "multiple": 34654, "170": 16218, "Ġdefin": 32888, "Ġconj": 21044, "ĠFolk": 27518, "ittered": 46875, "Ġwounding": 21354, "Whe": 44413, "ĠMid": 4079, "Ġintercourse": 31677, "Ġcohesive": 33033, "ĠSons": 21913, "Ġobserv": 20717, "Ġ264": 36223, "Ġauthor": 2730, "Ġinhibited": 45427, "ĠActing": 13711, "rics": 18715, "Ġprovocation": 29995, "isure": 25145, "Ġvoucher": 28336, "Slow": 43725, "ĠGaia": 42487, "ria": 6374, "oked": 17477, "eper": 30816, "Ġgoodwill": 20061, "ĠSynd": 43742, "ĠIowa": 4109, "Ġbring": 836, "Ġappeals": 7688,
[...]
